{"0": "Ā", "1": "ā", "2": "Ă", "3": "ă", "4": "Ą", "5": "ą", "6": "Ć", "7": "ć", "8": "Ĉ", "9": "ĉ", "10": "Ċ", "11": "ċ", "12": "Č", "13": "č", "14": "Ď", "15": "ď", "16": "Đ", "17": "đ", "18": "Ē", "19": "ē", "20": "Ĕ", "21": "ĕ", "22": "Ė", "23": "ė", "24": "Ę", "25": "ę", "26": "Ě", "27": "ě", "28": "Ĝ", "29": "ĝ", "30": "Ğ", "31": "ğ", "32": "Ġ", "33": "!", "34": "\"", "35": "#", "36": "$", "37": "%", "38": "&", "39": "'", "40": "(", "41": ")", "42": "*", "43": "+", "44": ",", "45": "-", "46": ".", "47": "/", "48": "0", "49": "1", "50": "2", "51": "3", "52": "4", "53": "5", "54": "6", "55": "7", "56": "8", "57": "9", "58": ":", "59": ";", "60": "<", "61": "=", "62": ">", "63": "?", "64": "@", "65": "A", "66": "B", "67": "C", "68": "D", "69": "E", "70": "F", "71": "G", "72": "H", "73": "I", "74": "J", "75": "K", "76": "L", "77": "M", "78": "N", "79": "O", "80": "P", "81": "Q", "82": "R", "83": "S", "84": "T", "85": "U", "86": "V", "87": "W", "88": "X", "89": "Y", "90": "Z", "91": "[", "92": "\\", "93": "]", "94": "^", "95": "_", "96": "`", "97": "a", "98": "b", "99": "c", "100": "d", "101": "e", "102": "f", "103": "g", "104": "h", "105": "i", "106": "j", "107": "k", "108": "l", "109": "m", "110": "n", "111": "o", "112": "p", "113": "q", "114": "r", "115": "s", "116": "t", "117": "u", "118": "v", "119": "w", "120": "x", "121": "y", "122": "z", "123": "{", "124": "|", "125": "}", "126": "~", "127": "ġ", "128": "Ģ", "129": "ģ", "130": "Ĥ", "131": "ĥ", "132": "Ħ", "133": "ħ", "134": "Ĩ", "135": "ĩ", "136": "Ī", "137": "ī", "138": "Ĭ", "139": "ĭ", "140": "Į", "141": "į", "142": "İ", "143": "ı", "144": "Ĳ", "145": "ĳ", "146": "Ĵ", "147": "ĵ", "148": "Ķ", "149": "ķ", "150": "ĸ", "151": "Ĺ", "152": "ĺ", "153": "Ļ", "154": "ļ", "155": "Ľ", "156": "ľ", "157": "Ŀ", "158": "ŀ", "159": "Ł", "160": "ł", "161": "¡", "162": "¢", "163": "£", "164": "¤", "165": "¥", "166": "¦", "167": "§", "168": "¨", "169": "©", "170": "ª", "171": "«", "172": "¬", "173": "Ń", "174": "®", "175": "¯", "176": "°", "177": "±", "178": "²", "179": "³", "180": "´", "181": "µ", "182": "¶", "183": "·", "184": "¸", "185": "¹", "186": "º", "187": "»", "188": "¼", "189": "½", "190": "¾", "191": "¿", "192": "À", "193": "Á", "194": "Â", "195": "Ã", "196": "Ä", "197": "Å", "198": "Æ", "199": "Ç", "200": "È", "201": "É", "202": "Ê", "203": "Ë", "204": "Ì", "205": "Í", "206": "Î", "207": "Ï", "208": "Ð", "209": "Ñ", "210": "Ò", "211": "Ó", "212": "Ô", "213": "Õ", "214": "Ö", "215": "×", "216": "Ø", "217": "Ù", "218": "Ú", "219": "Û", "220": "Ü", "221": "Ý", "222": "Þ", "223": "ß", "224": "à", "225": "á", "226": "â", "227": "ã", "228": "ä", "229": "å", "230": "æ", "231": "ç", "232": "è", "233": "é", "234": "ê", "235": "ë", "236": "ì", "237": "í", "238": "î", "239": "ï", "240": "ð", "241": "ñ", "242": "ò", "243": "ó", "244": "ô", "245": "õ", "246": "ö", "247": "÷", "248": "ø", "249": "ù", "250": "ú", "251": "û", "252": "ü", "253": "ý", "254": "þ", "255": "ÿ", "256": "Ġt", "257": "he", "258": "Ġa", "259": "Ġs", "260": "Ġw", "261": "nd", "262": "Ġthe", "263": "ed", "264": "Ġb", "265": "Ġto", "266": "Ġand", "267": "Ġh", "268": "Ġf", "269": "in", "270": "ĠT", "271": "Ġwa", "272": "re", "273": "it", "274": "ou", "275": "Ġl", "276": "Ġd", "277": "Ġc", "278": "Ġp", "279": "ay", "280": "Ġm", "281": "er", "282": "Ġwas", "283": "om", "284": "ĠThe", "285": "Ġhe", "286": "is", "287": "ar", "288": "Ġn", "289": "im", "290": "on", "291": "Ġsa", "292": "id", "293": "ll", "294": "Ġha", "295": "Ġg", "296": "at", "297": "ĠS", "298": "ing", "299": "ot", "300": "en", "301": "an", "302": "le", "303": "or", "304": "ir", "305": "am", "306": "et", "307": "ĠH", "308": "Ġit", "309": "Ġth", "310": "ig", "311": "ĠThey", "312": "Ġin", "313": "il", "314": "Ġpl", "315": "ĠHe", "316": "Ġ\"", "317": "ow", "318": "ver", "319": "ri", "320": "ut", "321": "Ġbe", "322": "Ġu", "323": "Ġsaid", "324": "Ġplay", "325": "ith", "326": "Ġday", "327": "Ġwith", "328": "pp", "329": "On", "330": "Ġo", "331": "Ġy", "332": "oo", "333": "ked", "334": "Ġr", "335": "Ġher", "336": "ce", "337": "ĠI", "338": "ĠShe", "339": "ld", "340": "ĠTim", "341": "Ġhis", "342": "Ġst", "343": "ke", "344": "Ġe", "345": "Ġbig", "346": "nt", "347": "ck", "348": "Ġyou", "349": "very", "350": "st", "351": "ve", "352": "end", "353": "Ġon", "354": "un", "355": "Ġhapp", "356": "riend", "357": "Ġfriend", "358": "all", "359": "ily", "360": "ĠL", "361": "Ġthey", "362": "Ġwe", "363": "Ġhad", "364": "Ġnot", "365": "Ġli", "366": "Ġup", "367": "her", "368": "Ġwant", "369": "Ġof", "370": "ad", "371": "itt", "372": "se", "373": "ĠB", "374": "Ġdo", "375": "Ġhappy", "376": "ent", "377": "Ġvery", "378": "ĠM", "379": "es", "380": "Ġthat", "381": "Ġsaw", "382": "One", "383": "'s", "384": "ould", "385": "Ġmom", "386": "Ġfor", "387": "Ġsh", "388": "ittle", "389": "Ġlittle", "390": "Ġso", "391": "Ġshe", "392": "ch", "393": "ime", "394": "Ġne", "395": "Ġnam", "396": ".\"", "397": "Ġtime", "398": "Ġk", "399": "ound", "400": "Ġthere", "401": "Ġnamed", "402": "Ġsm", "403": "Ġbo", "404": "Ġwere", "405": "ĠLily", "406": "Ġwanted", "407": "Ġbut", "408": "out", "409": "The", "410": "Ġfriends", "411": "ved", "412": "!\"", "413": "ht", "414": "ĠTom", "415": "ird", "416": "el", "417": "Ġbird", "418": "al", "419": "Ġan", "420": "ake", "421": "Ġtoo", "422": "ome", "423": "ĠIt", "424": "ug", "425": "ide", "426": "Ġwent", "427": "Ġwh", "428": "Ġhel", "429": "Once", "430": "Ġis", "431": "Ġall", "432": "Ġhelp", "433": "ue", "434": "Ġloo", "435": "Ġlo", "436": "ter", "437": "ĠA", "438": "Ġupon", "439": "ry", "440": "ore", "441": "ind", "442": "Ġfun", "443": "get", "444": "Ġtoy", "445": "ill", "446": "ame", "447": "Ġas", "448": "Ġat", "449": "ra", "450": "Ġj", "451": "Ġdid", "452": "gether", "453": "Ġre", "454": "ur", "455": "Ġse", "456": "Ġtogether", "457": "ack", "458": "Ġcat", "459": "ly", "460": "Ġtre", "461": "ood", "462": "ic", "463": "ted", "464": "Ġdog", "465": "Ġcould", "466": "Ġcan", "467": "Ġtheir", "468": "ard", "469": "ec", "470": "ark", "471": "Ġgir", "472": "Ġplayed", "473": "Ġhim", "474": "Ġball", "475": "?\"", "476": "Ġgirl", "477": "way", "478": "Ġro", "479": "Ġgo", "480": "hed", "481": "my", "482": "Ġare", "483": "Ġout", "484": "Ġle", "485": "Ġfr", "486": "ain", "487": "Ġkn", "488": "hen", "489": "Ġthem", "490": "um", "491": "'t", "492": "ax", "493": "Ġsad", "494": "ul", "495": "Ġboy", "496": "Ġtree", "497": "other", "498": "Ġhave", "499": "Ġman", "500": "Ġcl", "501": "Ġloved", "502": "Ġlooked", "503": "ĊĊ", "504": "oug", "505": "Ġfound", "506": "Ġsp", "507": "Ġstar", "508": "ĠSue", "509": "one", "510": "hing", "511": "Ġsc", "512": "Ġback", "513": "own", "514": "ĠMax", "515": "are", "516": "Ġlike", "517": "ful", "518": "side", "519": "Ġme", "520": "Ġbec", "521": "Ġpark", "522": "ight", "523": "ong", "524": "Ġcar", "525": "op", "526": "elt", "527": "ĠOne", "528": "Ġliked", "529": "Ġwould", "530": "Ġmake", "531": "round", "532": "Ġla", "533": "Ġfa", "534": "Ġfelt", "535": "You", "536": "ĠW", "537": "ell", "538": "Ġsee", "539": "ĠBut", "540": "omet", "541": "Ġasked", "542": "ag", "543": "Ġnew", "544": "Ġno", "545": "ice", "546": "ĠSam", "547": "ouse", "548": "Ġstarted", "549": "ared", "550": "Ġcame", "551": "ĠBen", "552": "Ġal", "553": "Ġother", "554": "ought", "555": "iled", "556": "Ġsomet", "557": "Ġag", "558": "Ġgood", "559": "Ġsmall", "560": "ss", "561": "Ġbr", "562": "Ġsmiled", "563": "Ġsay", "564": "ried", "565": "ade", "566": "ings", "567": "ob", "568": "pot", "569": "Ġwor", "570": "Ġfind", "571": "Ġex", "572": "ia", "573": "Ġaway", "574": "ty", "575": "Ġput", "576": "Ġwhat", "577": "Ġsomething", "578": "Ġco", "579": "Ġfrom", "580": "Ġmade", "581": "Ġthought", "582": "ened", "583": "Ġhome", "584": "Ġplaying", "585": "ook", "586": "Ġevery", "587": "Ġwal", "588": "Ġmu", "589": "uc", "590": "ach", "591": "arn", "592": "ĠSpot", "593": "Ġran", "594": "ile", "595": "ĠF", "596": "ie", "597": "ĠJ", "598": "ave", "599": "Ġagain", "600": "Ġsome", "601": "Ġlaug", "602": "dd", "603": "Ġhouse", "604": "Ġdown", "605": "Ġfl", "606": "king", "607": "Ġtook", "608": "Ġscared", "609": "Ġpr", "610": "ny", "611": "ure", "612": "Ġtoys", "613": "Ġlearn", "614": "ĠYou", "615": "if", "616": "Ġwill", "617": "Ġbox", "618": "ick", "619": "ret", "620": "ab", "621": "ep", "622": "Ġmy", "623": "Ġaround", "624": "Ġthings", "625": "Ġyour", "626": "oud", "627": "Ġbl", "628": "uck", "629": "Ġwhen", "630": "ish", "631": "Ġlived", "632": "Ġfe", "633": "Ġthen", "634": "Ġsun", "635": "as", "636": "Ġsw", "637": ",\"", "638": "Ġch", "639": "us", "640": "pped", "641": "Ġab", "642": "ĠMia", "643": "ank", "644": "Ġget", "645": "ucy", "646": "Tim", "647": "ump", "648": "Th", "649": "Ġlot", "650": "ist", "651": "oth", "652": "Ġtried", "653": "ap", "654": "Ġknow", "655": "Ġsays", "656": "Ġgot", "657": "ited", "658": "Ġwho", "659": "Ġkne", "660": "ust", "661": "Ġmany", "662": "nder", "663": "Ġint", "664": "Ġabout", "665": "Lily", "666": "Ġpret", "667": "Ġdec", "668": "Ġany", "669": "Ġred", "670": "ĠD", "671": "ive", "672": "Ġknew", "673": "ace", "674": "ous", "675": "Ġmore", "676": "ise", "677": "Ġcare", "678": "ally", "679": "Ġpic", "680": "au", "681": "qu", "682": "Ġhug", "683": "ĠLucy", "684": "Ġlearned", "685": "Ġpo", "686": "Ġwater", "687": "fter", "688": "Ġv", "689": "Ġbecame", "690": "Ġbest", "691": "ause", "692": "Ġop", "693": "Ġgre", "694": "Ġexc", "695": "urp", "696": "ways", "697": "âĢ", "698": "Ġoutside", "699": "Ġlaughed", "700": "Ġlook", "701": "Ġalways", "702": "Ġdecid", "703": "Ġshow", "704": "Ġun", "705": "ant", "706": "ĠBob", "707": "Ġroom", "708": "fe", "709": "Ġdecided", "710": "Ġho", "711": "Ġbecause", "712": "ĠSo", "713": "Ġinto", "714": "Ġeat", "715": "ite", "716": "Ġjump", "717": "ĠAnd", "718": "Ġpe", "719": "Ġboth", "720": "ers", "721": "ĠMom", "722": "Ġdad", "723": "They", "724": "udd", "725": "Ġke", "726": "Ġone", "727": "nn", "728": "Ġthis", "729": "Ġexcited", "730": "Ġfast", "731": "Ġnice", "732": "ĠE", "733": "Ġfeel", "734": "Tom", "735": "Yes", "736": "Ġrun", "737": "Ġlong", "738": "Ġtold", "739": "Ġsk", "740": "Ġam", "741": "urpr", "742": "our", "743": "Ġinside", "744": "ull", "745": "Ġtr", "746": "Ġsurpr", "747": "Ġmo", "748": "ink", "749": "Ġpretty", "750": "iny", "751": "Ġsor", "752": "Wh", "753": "Ġtake", "754": "og", "755": "Ġsl", "756": "Ġeach", "757": "Ġgave", "758": "Ġmuch", "759": "Ġgra", "760": "lew", "761": "nna", "762": "Ġrock", "763": "Ġhow", "764": "Ġstr", "765": "ara", "766": "imal", "767": "Ġanimal", "768": "ged", "769": "Ġneed", "770": "Ġthan", "771": "But", "772": "ven", "773": "etter", "774": "Ġtow", "775": "Ġor", "776": "ĠC", "777": "Ġunder", "778": "ess", "779": "Ġold", "780": "Ġsorry", "781": "ge", "782": "ised", "783": "ro", "784": "urt", "785": "Ġcle", "786": "Ġfish", "787": "Ġwalked", "788": "Ġclo", "789": "and", "790": "Ġbear", "791": "ft", "792": "ase", "793": "ast", "794": "Ġhand", "795": "urn", "796": "ĠWe", "797": "Ġkind", "798": "ĠHis", "799": "Ġte", "800": "here", "801": "Ġhappened", "802": "Ġjust", "803": "Ġflow", "804": "Ġfood", "805": "Ġlist", "806": "Ġdidn", "807": "Ġanimals", "808": "Ġhig", "809": "pl", "810": "Ġnear", "811": "Ġwat", "812": "Ġide", "813": "Ġtry", "814": "ched", "815": "Ġsky", "816": "ine", "817": "Ġsn", "818": "ving", "819": "Ġfi", "820": "rom", "821": "Ġus", "822": "Ġidea", "823": "Ġbetter", "824": "ĠAmy", "825": "Ġbug", "826": "Ġheard", "827": "gry", "828": "Ġits", "829": "Ġtw", "830": "Ġlet", "831": "pec", "832": "ate", "833": "able", "834": "ff", "835": "Ġen", "836": "Ġcareful", "837": "Ġshare", "838": "ex", "839": "Ġif", "840": "Thank", "841": "Mom", "842": "Ġfly", "843": "Ġstor", "844": "ial", "845": "Ġflew", "846": "more", "847": "Ġanymore", "848": "ĠTh", "849": "Ġspec", "850": "Ġspecial", "851": "ion", "852": "Ġcom", "853": "Ġlots", "854": "Ġnever", "855": "Ġby", "856": "lf", "857": "ream", "858": "Ġdan", "859": "Ġbu", "860": "Ġfo", "861": "Ġwind", "862": "Ġdon", "863": "Ġtal", "864": "Ġclean", "865": "ort", "866": "Ġgr", "867": "Ġlove", "868": "rm", "869": "ber", "870": "Ġend", "871": "ĠThen", "872": "ople", "873": "Ġeven", "874": "ĊĊĊ", "875": "Ġmag", "876": "Ġhard", "877": "Ġshiny", "878": "udden", "879": "Ġfore", "880": "Ġover", "881": "Ġcake", "882": "ak", "883": "Ġbook", "884": "Ġcol", "885": "Ġturn", "886": "Ġfam", "887": "Ġbad", "888": "Ġsafe", "889": "Ġafter", "890": "ady", "891": "ĠAnna", "892": "uddenly", "893": "Ġpeople", "894": "Ġproud", "895": "ĠEvery", "896": "Ġsurprised", "897": "pected", "898": "Let", "899": "Ġhigh", "900": "Ġcu", "901": "Ġhurt", "902": "Ġcome", "903": "imb", "904": "arden", "905": "Ġdoor", "906": "Ġgarden", "907": "bb", "908": "Ġground", "909": "Ġopened", "910": "Ġpicked", "911": "Ġloud", "912": "Ġclimb", "913": "expected", "914": "Ġunexpected", "915": "Ġgl", "916": "Ġche", "917": "ild", "918": "Ġim", "919": "As", "920": "Ġgive", "921": "Ġway", "922": "ail", "923": "'m", "924": "Ġthanked", "925": "Ġcolor", "926": "Ġblue", "927": "Ġstill", "928": "Ġever", "929": "Ġhugged", "930": "ĠFrom", "931": "Ġcall", "932": "Ġfar", "933": "ip", "934": "ĠHer", "935": "ĠSara", "936": "ĠWhen", "937": "No", "938": "Ġoff", "939": "Ġmagic", "940": "iz", "941": "ough", "942": "age", "943": "ummy", "944": "ĠK", "945": "Ġjumped", "946": "Ġshould", "947": "Ġfamily", "948": "Ġpar", "949": "ool", "950": "Ġkid", "951": "Ġsmile", "952": "hes", "953": "uff", "954": "Ġplace", "955": "kay", "956": "Ġwalk", "957": "Ġnow", "958": "ct", "959": "ĠIn", "960": "Ġgreat", "961": "em", "962": "ture", "963": "Ġqu", "964": "les", "965": "Ġstrong", "966": "Ġstay", "967": "Ġunt", "968": "Ġsto", "969": "aut", "970": "Ġforest", "971": "ane", "972": "Ġbra", "973": "itty", "974": "ĠP", "975": "Ġfrog", "976": "Ġbro", "977": "Ġuntil", "978": "oon", "979": "Ġbeaut", "980": "dy", "981": "Ġsqu", "982": "Ġstick", "983": "xt", "984": "Ġnext", "985": "Ġboat", "986": "lease", "987": "ning", "988": "Ġhappily", "989": "Ġlisten", "990": "aking", "991": "Ġkids", "992": "Ġtra", "993": "ies", "994": "iful", "995": "Ġbeautiful", "996": "Ġapp", "997": "th", "998": "Ġhelped", "999": "Ġdra", "1000": "Ġshowed", "1001": "Ġclos", "1002": "be", "1003": "Ġimp", "1004": "Ġstory", "1005": "unny", "1006": "oy", "1007": "Ġwhile", "1008": "Ġtown", "1009": "rel", "1010": "pt", "1011": "Ġrain", "1012": "ress", "1013": "Ġpicture", "1014": "Ġbeing", "1015": "Ġrem", "1016": "Ġeveryone", "1017": "It", "1018": "ary", "1019": "ree", "1020": "Ġmor", "1021": "Ġhat", "1022": "Ġcalled", "1023": "Ġmet", "1024": "Ġstopped", "1025": "Ġad", "1026": "Ġgame", "1027": "Now", "1028": "He", "1029": "Can", "1030": "Ġangry", "1031": "ger", "1032": "uffy", "1033": "Ġopen", "1034": "Ġwo", "1035": "Ġtruck", "1036": "Ġkeep", "1037": "Ġsoft", "1038": "When", "1039": "Ġcry", "1040": "Ġyummy", "1041": "Ġlost", "1042": "Ġbed", "1043": "ĠLet", "1044": "ĠSally", "1045": "Ġwarm", "1046": "by", "1047": "vent", "1048": "Ġbrave", "1049": "Ġmouse", "1050": "ĠWh", "1051": "Ġate", "1052": "ĠKitty", "1053": "ished", "1054": "Ġde", "1055": "fore", "1056": "Ġdoll", "1057": "so", "1058": "Ġcouldn", "1059": "Ġwatch", "1060": "Ġleave", "1061": "Ġalso", "1062": "dded", "1063": "Ġfell", "1064": "Ġgreen", "1065": "Ġface", "1066": "Ġtwo", "1067": "gan", "1068": "iss", "1069": "Ġflowers", "1070": "bit", "1071": "What", "1072": "ĠR", "1073": "ble", "1074": "Ġnoise", "1075": "abbit", "1076": "irst", "1077": "owl", "1078": "Ġwhere", "1079": "az", "1080": "ock", "1081": "Ġsoon", "1082": "self", "1083": "Ġslide", "1084": "Ġrabbit", "1085": "Ġhole", "1086": "luffy", "1087": "Ġbefore", "1088": "irrel", "1089": "Ġpus", "1090": "ired", "1091": "Ġsat", "1092": "illy", "1093": "Ġhear", "1094": "Ġuse", "1095": "âĢĿ", "1096": "Hi", "1097": "Ġpa", "1098": "Ġkept", "1099": "âĢľ", "1100": "That", "1101": "Ġsquirrel", "1102": "ear", "1103": "Then", "1104": "ma", "1105": "Ġnodded", "1106": "Ġexpl", "1107": "Ġstore", "1108": "Ġcook", "1109": "Ġhands", "1110": "Look", "1111": "Ġbirds", "1112": "Ġpain", "1113": "Ġgoing", "1114": "Ġfunny", "1115": "Ġhaving", "1116": "day", "1117": "Ġsing", "1118": "aybe", "1119": "uch", "1120": "Ġey", "1121": "aug", "1122": "Ġcatch", "1123": "aught", "1124": "ĠCan", "1125": "ĠFluffy", "1126": "uit", "1127": "Ġyell", "1128": "Ġthink", "1129": "leep", "1130": "Ġcra", "1131": "Ġfin", "1132": "Ben", "1133": "Ġbre", "1134": "Ġfix", "1135": "Ġtired", "1136": "Ġbunny", "1137": "Ġused", "1138": "Ġlooking", "1139": "Ġbus", "1140": "ange", "1141": "air", "1142": "Ġwork", "1143": "Ġwr", "1144": "Ġour", "1145": "Ġpull", "1146": "We", "1147": "Ġthr", "1148": "thing", "1149": "ĠNow", "1150": "Ġwait", "1151": "Ġkit", "1152": "Ġsound", "1153": "ting", "1154": "Ġjo", "1155": "Ġhas", "1156": "ĠG", "1157": "Ġmean", "1158": "Ġpond", "1159": "ember", "1160": "Ġbeh", "1161": "Ġdr", "1162": "Ġsunny", "1163": "led", "1164": "Ġothers", "1165": "Ġask", "1166": "ng", "1167": "chen", "1168": "Ġkitchen", "1169": "Ġtalk", "1170": "Ġflo", "1171": "Ġdif", "1172": "rew", "1173": "Ġpie", "1174": "ĠJo", "1175": "Ġhead", "1176": "Ġreal", "1177": "Ġfirst", "1178": "Ġtri", "1179": "Ġmommy", "1180": "Ġeyes", "1181": "ello", "1182": "Ġimport", "1183": "Hello", "1184": "Ġfav", "1185": "ath", "1186": "joy", "1187": "Ġz", "1188": "Ġremember", "1189": "Ġright", "1190": "Ġflower", "1191": "Ġcon", "1192": "Ġmess", "1193": "Ġparty", "1194": "Ġcold", "1195": "ĠDo", "1196": "Ġvo", "1197": "Ġswe", "1198": "ious", "1199": "Ġsand", "1200": "ĠâĢľ", "1201": "ac", "1202": "orn", "1203": "Ġrace", "1204": "Ġcuri", "1205": "imes", "1206": "Ġimportant", "1207": "Ġduck", "1208": "Ġmoral", "1209": "Ġshared", "1210": "zy", "1211": "ount", "1212": "ĠJack", "1213": "Ġice", "1214": "Ġokay", "1215": "Ġadvent", "1216": "Ġworked", "1217": "llow", "1218": "At", "1219": "Ġenjoy", "1220": "Ġdress", "1221": "Ġbright", "1222": "Ġmaking", "1223": "Ġcurious", "1224": "Ġown", "1225": "Ġtall", "1226": "Ġdir", "1227": "Ġhop", "1228": "reed", "1229": "Ġhid", "1230": "Ġfavor", "1231": "Ġri", "1232": "hn", "1233": "Ġsleep", "1234": "Ġdis", "1235": "Wow", "1236": "Ġfavorite", "1237": "Ġthing", "1238": "Ġbegan", "1239": "Ġmon", "1240": "Ġbag", "1241": "Ġhill", "1242": "Don", "1243": "Ġcla", "1244": "Ġdraw", "1245": "Ġrest", "1246": "Ġhere", "1247": "Ġyard", "1248": "Ġtell", "1249": "ĠFin", "1250": "ster", "1251": "Ġwatched", "1252": "que", "1253": "Ġfollow", "1254": "Ġmove", "1255": "Ġbel", "1256": "ect", "1257": "Ġcut", "1258": "Ġnight", "1259": "Ġagreed", "1260": "Ġpick", "1261": "co", "1262": "Ġblock", "1263": "Ġhun", "1264": "aper", "1265": "lly", "1266": "Ġstop", "1267": "Ġbehind", "1268": "ĠThis", "1269": "Ġsurprise", "1270": "ied", "1271": "Ġsho", "1272": "Ġhot", "1273": "After", "1274": "Ġtable", "1275": "Ġgrass", "1276": "Ġworry", "1277": "Ġdark", "1278": "Ġtrees", "1279": "Ġvoice", "1280": "Ġwalking", "1281": "fere", "1282": "Ġfloor", "1283": "Ġfarm", "1284": "Ġlion", "1285": "Ġtop", "1286": "Ġdiffere", "1287": "Ġplease", "1288": "Ġru", "1289": "Ġsong", "1290": "Ġbutter", "1291": "Ġtail", "1292": "Ġsweet", "1293": "Max", "1294": "Ġshout", "1295": "Ġcolors", "1296": "Ġread", "1297": "ĠDad", "1298": "Ġlady", "1299": "Ġforg", "1300": "isy", "1301": "Ġleaves", "1302": "Ġcloser", "1303": "ign", "1304": "Ġcars", "1305": "Ġturned", "1306": "Ġneeded", "1307": "Ġtast", "1308": "Why", "1309": "aring", "1310": "Ġwood", "1311": "Ġcried", "1312": "Ġdifferent", "1313": "Ġlaugh", "1314": "Ġdel", "1315": "Ġpiece", "1316": "âĢĻ", "1317": "ered", "1318": "ĠMr", "1319": "Ġroll", "1320": "Ġadventure", "1321": "Ġfire", "1322": "Ġdoes", "1323": "ike", "1324": "Ġcr", "1325": "Ġhungry", "1326": "Ġhair", "1327": "ĠSuddenly", "1328": "Ġpaper", "1329": "Ġfeeling", "1330": "Ġyellow", "1331": "Ġfull", "1332": "bo", "1333": "Ġprin", "1334": "Sue", "1335": "Ġtouch", "1336": "ĠAs", "1337": "Anna", "1338": "Sam", "1339": "Ġwet", "1340": "Ġfriendly", "1341": "Ġper", "1342": "oom", "1343": "ken", "1344": "cked", "1345": "ached", "1346": "Ġswing", "1347": "Ġfruit", "1348": "ient", "1349": "Ġbroken", "1350": "Ġready", "1351": "bye", "1352": "ppy", "1353": "Ġprom", "1354": "ĠThat", "1355": "Ġanother", "1356": "Ġlight", "1357": "Ġpretend", "1358": "Ġdance", "1359": "ater", "1360": "Ġclimbed", "1361": "where", "1362": "Ġlistened", "1363": "ĠBobo", "1364": "Ġdanc", "1365": "Ġrunning", "1366": "Ġonly", "1367": "Ġplan", "1368": "Ġgone", "1369": "Ġswim", "1370": "bbed", "1371": "Suddenly", "1372": "sh", "1373": "Ġtrain", "1374": "ila", "1375": "ndma", "1376": "Sara", "1377": "ĠJane", "1378": "Ġclose", "1379": "av", "1380": "She", "1381": "Ġsmell", "1382": "So", "1383": "aby", "1384": "Ġamaz", "1385": "Ġhold", "1386": "Ġblocks", "1387": "Ġwonder", "1388": "ĠTimmy", "1389": "Ġrepl", "1390": "ĠAll", "1391": "Ġbutterf", "1392": "Ġsees", "1393": "Ġreached", "1394": "Ġwall", "1395": "Ġpu", "1396": "oney", "1397": "red", "1398": "Ġslow", "1399": "Ġhelping", "1400": "Ġdri", "1401": "Ġcream", "1402": "Ġcool", "1403": "Ġglad", "1404": "af", "1405": "Ġant", "1406": "Ġless", "1407": "Ġbeen", "1408": "Ġgoodbye", "1409": "Ġac", "1410": "Ġfight", "1411": "ather", "1412": "Mia", "1413": "Ġpushed", "1414": "iced", "1415": "Ġfair", "1416": "Ġmust", "1417": "Ġhide", "1418": "Ġmoment", "1419": "Ġwindow", "1420": "ĠO", "1421": "Ġsit", "1422": "Ġballoon", "1423": "Ġsnow", "1424": "Ġchild", "1425": "Ġexplore", "1426": "ĠEveryone", "1427": "Ġar", "1428": "Ġwished", "1429": "Ġbaby", "1430": "Ġdone", "1431": "Ġwag", "1432": "Ġste", "1433": "Ġbuy", "1434": "Ġstuck", "1435": "Ġperf", "1436": "Ġthank", "1437": "Ġmight", "1438": "icy", "1439": "Ġname", "1440": "ized", "1441": "Ġtrying", "1442": "Ġbit", "1443": "Ġcoming", "1444": "Ġbar", "1445": "Ġquick", "1446": "Ġfall", "1447": "Ġapple", "1448": "ash", "1449": "Ġscary", "1450": "Ġlooks", "1451": "Ġbuild", "1452": "Ġdoing", "1453": "Ġwin", "1454": "Ġunderst", "1455": "aisy", "1456": "Ġdin", "1457": "Ġdream", "1458": "Ġdirty", "1459": "Ġheld", "1460": "ames", "1461": "Ġbooks", "1462": "Ġmar", "1463": "In", "1464": "Ġbutterfly", "1465": "Ġleft", "1466": "Ġshouted", "1467": "Ġcount", "1468": "Ġreplied", "1469": "avy", "1470": "Ġreach", "1471": "Ġtiny", "1472": "Ġthrough", "1473": "ott", "1474": "Ġdro", "1475": "Ġwhy", "1476": "Ġair", "1477": "Ġbran", "1478": "Ġland", "1479": "key", "1480": "Ġthree", "1481": "Ġpulled", "1482": "Ġspl", "1483": "Ġgrow", "1484": "Ġtreat", "1485": "Ġbrother", "1486": "Ġwise", "1487": "Ġwoods", "1488": "Ġsure", "1489": "'re", "1490": "Ġchair", "1491": "ix", "1492": "Ġmat", "1493": "ins", "1494": "Ġseen", "1495": "Ġpink", "1496": "Ġclapped", "1497": "Ġplant", "1498": "ely", "1499": "Ġowl", "1500": "Ġcup", "1501": "ield", "1502": "Ġsometimes", "1503": "andy", "1504": "Ġfill", "1505": "Ġcloud", "1506": "ask", "1507": "Ġswam", "1508": "outh", "1509": "Ġjob", "1510": "Ġcolorful", "1511": "Ġremembered", "1512": "Ġbigger", "1513": "Ġnest", "1514": "Ġmouth", "1515": "pe", "1516": "Okay", "1517": "Ġlesson", "1518": "Ġjoin", "1519": "Ġcre", "1520": "ph", "1521": "ĠThere", "1522": "oup", "1523": "room", "1524": "art", "1525": "Ġwaved", "1526": "uddy", "1527": "Ġgrabbed", "1528": "Ġstayed", "1529": "Oh", "1530": "Ġpaint", "1531": "This", "1532": "Ġclot", "1533": "Ġcont", "1534": "Ġclothes", "1535": "Ġve", "1536": "ower", "1537": "ĠAfter", "1538": "Ġwaited", "1539": "Ġquickly", "1540": "cle", "1541": "Ġword", "1542": "Ġbroke", "1543": "ucky", "1544": "Ġgames", "1545": "Ġcast", "1546": "Ġblew", "1547": "Ġgent", "1548": "ĠMommy", "1549": "Ġenjoyed", "1550": "Ġnoticed", "1551": "Jo", "1552": "ries", "1553": "ation", "1554": "Ġset", "1555": "Ġlikes", "1556": "Ġpictures", "1557": "ton", "1558": "de", "1559": "Ġsea", "1560": "Ġheavy", "1561": "Ġmus", "1562": "Ġalone", "1563": "Ġgif", "1564": "asure", "1565": "Ġanything", "1566": "Ġspot", "1567": "Ġmiss", "1568": "Ġhopped", "1569": "Ġworld", "1570": "Ġturns", "1571": "orm", "1572": "Ġyear", "1573": "der", "1574": "Ġbott", "1575": "Ġpat", "1576": "Ġpot", "1577": "Ġpen", "1578": "lc", "1579": "Her", "1580": "Ġmix", "1581": "Ġarm", "1582": "Ġbike", "1583": "Ġtight", "1584": "Ġeverywhere", "1585": "Ġwon", "1586": "Lucy", "1587": "Ġtower", "1588": "Ġthrew", "1589": "Ġhimself", "1590": "Ġfollowed", "1591": "ĠBuddy", "1592": "Ġride", "1593": "man", "1594": "less", "1595": "Ġju", "1596": "Ġje", "1597": "amp", "1598": "Bob", "1599": "ape", "1600": "Ġcomp", "1601": "Ġkey", "1602": "row", "1603": "\".", "1604": "Ġwhite", "1605": "ctor", "1606": "Ġwrong", "1607": "ĠDaisy", "1608": "Ġmakes", "1609": "ĠWhat", "1610": "Ġbreak", "1611": "Ġblack", "1612": "arent", "1613": "ee", "1614": "ner", "1615": "Spot", "1616": "Do", "1617": "Ġdeep", "1618": "thy", "1619": "Ġmusic", "1620": "Ġpol", "1621": "Ġdelic", "1622": "cess", "1623": "ued", "1624": "Ġforgot", "1625": "Ġbee", "1626": "Ġparent", "1627": "Ġcastle", "1628": "ves", "1629": "olly", "1630": "Ġem", "1631": "iet", "1632": "Ġwear", "1633": "Ġhit", "1634": "ister", "1635": "oun", "1636": "Ġquiet", "1637": "Ġround", "1638": "ance", "1639": "Ġstu", "1640": "Ġdanced", "1641": "Ġvis", "1642": "ully", "1643": "Ġwants", "1644": "Ġleaf", "1645": "Ġmonster", "1646": "Ġnap", "1647": "ĠJohn", "1648": "Ġunderstand", "1649": "ang", "1650": "Ġbowl", "1651": "os", "1652": "rot", "1653": "ren", "1654": "Ġbor", "1655": "Ġtalked", "1656": "itten", "1657": "Ġdry", "1658": "Ġfaster", "1659": "Ġcookies", "1660": "Ġbrought", "1661": "fully", "1662": "Ġleg", "1663": "ross", "1664": "Ġmum", "1665": "zz", "1666": "Ġside", "1667": "ts", "1668": "From", "1669": "Ġsign", "1670": "ĠInside", "1671": "Ġsmart", "1672": "cy", "1673": "Ġrocks", "1674": "Ġsomeone", "1675": "His", "1676": "Ġpoin", "1677": "Ġsec", "1678": "Ġsharing", "1679": "Ġfox", "1680": "Ġwell", "1681": "Ġres", "1682": "Ġrel", "1683": "Ġhappen", "1684": "Ġbutton", "1685": "Ġbranch", "1686": "ĠLila", "1687": "Ġreally", "1688": "Ġfinished", "1689": "ence", "1690": "ards", "1691": "Ġdinner", "1692": "Ġsister", "1693": "Ġflying", "1694": "eddy", "1695": "Ġcontin", "1696": "Ġworried", "1697": "Ġele", "1698": "ĠTo", "1699": "Ġvisit", "1700": "ĠMaybe", "1701": "Ġbeach", "1702": "Ġque", "1703": "Ġsecret", "1704": "Ġel", "1705": "ĠSarah", "1706": "Ġking", "1707": "John", "1708": "gy", "1709": "Ġtoday", "1710": "Ġperfect", "1711": "Ġriver", "1712": "Ġeverything", "1713": "Ġsilly", "1714": "Ġshin", "1715": "ĠJoe", "1716": "Ġdanger", "1717": "ipp", "1718": "Ġchildren", "1719": "Ġgu", "1720": "ĠSoon", "1721": "Ġfield", "1722": "Ġfilled", "1723": "Ġfur", "1724": "Ġelse", "1725": "Ġsmiles", "1726": "Ġwelc", "1727": "ĠAt", "1728": "Ġwish", "1729": "ĠEm", "1730": "While", "1731": "Ġsang", "1732": "Ġgi", "1733": "ze", "1734": "Ġpudd", "1735": "Ġsnack", "1736": "Ġeating", "1737": "Ġrealized", "1738": "Ġpieces", "1739": "Ġpromised", "1740": "ord", "1741": "Ġspr", "1742": "Ġpig", "1743": "Ġfree", "1744": "Ġcontinued", "1745": "Ġbite", "1746": "ead", "1747": "Ġparents", "1748": "Ġcarefully", "1749": "ated", "1750": "itting", "1751": "Ġear", "1752": "Just", "1753": "Ġjar", "1754": "Maybe", "1755": "Ġcow", "1756": "Amy", "1757": "Ġblank", "1758": "Ġdrag", "1759": "stead", "1760": "Ġorange", "1761": "Ġmud", "1762": "Ġcrying", "1763": "Ġblanket", "1764": "Ġenough", "1765": "Ġrolled", "1766": "cket", "1767": "Ġsoup", "1768": "Ġsail", "1769": "Ġpurp", "1770": "imi", "1771": "Ġyes", "1772": "ale", "1773": "Ġdrink", "1774": "Ġsnake", "1775": "ses", "1776": "Ġboun", "1777": "Ġpet", "1778": "Ġcrab", "1779": "Ġthrow", "1780": "Ġlaughing", "1781": "Ġfairy", "1782": "Ġwords", "1783": "Ġamazing", "1784": "Ġbath", "1785": "ich", "1786": "Ġpurple", "1787": "ĠZ", "1788": "Ġwithout", "1789": "ire", "1790": "Ġbottle", "1791": "ĠBilly", "1792": "Ġgift", "1793": "Ġgrandma", "1794": "Fin", "1795": "used", "1796": "ons", "1797": "Ġpast", "1798": "Ġmoney", "1799": "iver", "1800": "fort", "1801": "Ġmail", "1802": "ĠGra", "1803": "Ġbarked", "1804": "Ġwagged", "1805": "Ġatt", "1806": "chool", "1807": "Ġmonkey", "1808": "Ġdoctor", "1809": "unch", "1810": "Ġbrown", "1811": "Ġmoved", "1812": "ises", "1813": "Ġasks", "1814": "Ġgetting", "1815": "Ġclosed", "1816": "Ġwhe", "1817": "Ġwelcome", "1818": "Ġsu", "1819": "Ġcandy", "1820": "Ġschool", "1821": "Ġmorning", "1822": "Ġowner", "1823": "gg", "1824": "Ġlon", "1825": "Ġmother", "1826": "Ġhigher", "1827": "Ġsitting", "1828": "Ġtreasure", "1829": ".âĢĿ", "1830": "Ġsmo", "1831": "!âĢĿ", "1832": "Ġdangerous", "1833": "Ġlonely", "1834": "ĠCh", "1835": "Ġliving", "1836": "Ġapples", "1837": "ush", "1838": "Ġshop", "1839": "ased", "1840": "Ġstrange", "1841": "vel", "1842": "Ġshining", "1843": "Ġroad", "1844": "ere", "1845": "ĠTommy", "1846": "Ġcreat", "1847": "una", "1848": "Ġpaw", "1849": "Ġra", "1850": "ey", "1851": "Ġshoes", "1852": "Ġpre", "1853": "ible", "1854": "Ġ-", "1855": "Ġstre", "1856": "Ġtalking", "1857": "althy", "1858": "Ġcaught", "1859": "Ġegg", "1860": "ol", "1861": "Ġpass", "1862": "me", "1863": "Ġlake", "1864": "Ġruns", "1865": "Ġbuck", "1866": "Ġletter", "1867": "Ġwings", "1868": "Ġchee", "1869": "fish", "1870": "Ġmad", "1871": "Ġfan", "1872": "asket", "1873": "Ġbasket", "1874": "ass", "1875": "Ġdragon", "1876": "app", "1877": "Mommy", "1878": "set", "1879": "cks", "1880": "Ġstone", "1881": "Ġthinks", "1882": "Ġstand", "1883": "Ġdelicious", "1884": "Ġnose", "1885": "Ġpuddle", "1886": "Ġtom", "1887": "ĠBl", "1888": "ĠMimi", "1889": "Ġbelie", "1890": "Ġfarmer", "1891": "Ġsame", "1892": "Ġyears", "1893": "board", "1894": "Ġteddy", "1895": "Ġbat", "1896": "isk", "1897": "itch", "1898": "Ġmine", "1899": "Ġsear", "1900": "Ġcoat", "1901": "ches", "1902": "igh", "1903": "Ġdays", "1904": "Ġbring", "1905": "Ġgentle", "1906": "Ġfit", "1907": "Ġstart", "1908": "Ġfinally", "1909": "Ġwhist", "1910": "Ġcray", "1911": "igg", "1912": "Ġscream", "1913": "Ġkite", "1914": "Ġpill", "1915": "phant", "1916": "arm", "1917": "Ġvill", "1918": "Ġcho", "1919": "Ġsinging", "1920": "ella", "1921": "sw", "1922": "ined", "1923": "Ġtasty", "1924": "Ġph", "1925": "Ġben", "1926": "Ġtrou", "1927": "Ġshell", "1928": "Ġherself", "1929": "Ġhoped", "1930": "Ġansw", "1931": "Ġwore", "1932": "Ġswings", "1933": "sy", "1934": "Ġhor", "1935": "Ġbelong", "1936": "Please", "1937": "Ġpush", "1938": "Ġbush", "1939": "iskers", "1940": "Ġcarrot", "1941": "Ġarri", "1942": "aughty", "1943": "Ġteach", "1944": "bow", "1945": "ract", "1946": "Ġnaughty", "1947": "Ġelephant", "1948": "Ġdropped", "1949": "Ġshap", "1950": "ier", "1951": "Ġcoll", "1952": "sc", "1953": "Ġteac", "1954": "emy", "1955": "Ġwoke", "1956": "ball", "1957": "Ġpile", "1958": "Ġhiding", "1959": "Ġcour", "1960": "isa", "1961": "erry", "1962": "Ġtouc", "1963": "Ġmin", "1964": "Ġpuppy", "1965": "'ll", "1966": "Ġseem", "1967": "llie", "1968": "Ġtwins", "1969": "ama", "1970": "Ġlunch", "1971": "Ġbow", "1972": "Ġsack", "1973": "Ġpers", "1974": "Ġcourse", "1975": "Ġcheered", "1976": "Ġshapes", "1977": "ĠJen", "1978": "Ġgrew", "1979": "fused", "1980": "Ġrope", "1981": "Ġvillage", "1982": "irth", "1983": "irthday", "1984": "Ġjuice", "1985": "ipped", "1986": "Ġrainbow", "1987": "Ġspin", "1988": "OK", "1989": "Ġshook", "1990": "Jack", "1991": "Ġspoon", "1992": "Ġbench", "1993": "Ġstreet", "1994": "Ġfence", "1995": "Ġcute", "1996": "ĠFred", "1997": "Ġrob", "1998": "Ġnut", "1999": "Ġcheese", "2000": "Ġprob", "2001": "Ġtouched", "2002": "idge", "2003": "col", "2004": "Ġjoy", "2005": "ĠWhiskers", "2006": "Ġarrived", "2007": "Ġseed", "2008": "Ġwar", "2009": "Ġteacher", "2010": "Ġcorn", "2011": "Good", "2012": "Ġforever", "2013": "Ġable", "2014": "Ġbell", "2015": "Ġfew", "2016": "Ġcarry", "2017": "Ġmost", "2018": "Ġplane", "2019": "ĠBlue", "2020": "lem", "2021": "Ġeas", "2022": "Ġsounds", "2023": "lla", "2024": "Ġdes", "2025": "Ġspo", "2026": "Ġproblem", "2027": "Ġbirthday", "2028": "Ġpower", "2029": "Ġinc", "2030": "umb", "2031": "br", "2032": "Ġbugs", "2033": "ilk", "2034": "Ġwonderful", "2035": "Ġdolls", "2036": "Ġbusy", "2037": "ato", "2038": "irp", "2039": "eb", "2040": "Ġwra", "2041": "Ġpromise", "2042": "ĠThank", "2043": "Ġfeels", "2044": "ian", "2045": "ĠEmma", "2046": "eter", "2047": "Ġbread", "2048": "Ġneck", "2049": "Finally", "2050": "Ġmilk", "2051": "Ġrobot", "2052": "Ġrec", "2053": "Ġshy", "2054": "ountain", "2055": "Ġkiss", "2056": "irt", "2057": "Ġheart", "2058": "Ġband", "2059": "Ġcave", "2060": "Ġpocket", "2061": "ub", "2062": "Ġhelpful", "2063": "gly", "2064": "Ġslowly", "2065": "Ġbelieve", "2066": "Ġshake", "2067": "umpy", "2068": "eared", "2069": "Ġpatient", "2070": "Ġpop", "2071": "Ġob", "2072": "arp", "2073": "Ġlive", "2074": "Ġstorm", "2075": "Ġholding", "2076": "Ġugly", "2077": "Ġtowards", "2078": "Ġupset", "2079": "Ġturt", "2080": "Ġshr", "2081": "adow", "2082": "Ġcover", "2083": "Ġkitten", "2084": "ost", "2085": "ĠRemy", "2086": "Ġsharp", "2087": "Ġdisapp", "2088": "Ġstories", "2089": "Ġsuc", "2090": "Ġhoney", "2091": "ove", "2092": "ĠBella", "2093": "read", "2094": "Ġnoises", "2095": "ĠLe", "2096": "Ġcir", "2097": "Ġballs", "2098": "Ġspark", "2099": "Ġgray", "2100": "Ġdist", "2101": "Ġdirt", "2102": "oggy", "2103": "Ġlate", "2104": "Ġdriver", "2105": "Ġseat", "2106": "Ġbucket", "2107": "Ġmeet", "2108": "Ġyoung", "2109": "Ġamazed", "2110": "Ġturtle", "2111": "alm", "2112": "Ġspid", "2113": "Ġtreats", "2114": "Ġmagical", "2115": "unt", "2116": "ator", "2117": "Ġglow", "2118": "Ġseek", "2119": "Ġzoom", "2120": "Ġlem", "2121": "Ġsandw", "2122": "fortable", "2123": "umber", "2124": "Ġtrip", "2125": "Ġmist", "2126": "ourn", "2127": "Ġsplas", "2128": "Ġmark", "2129": "Ġjourn", "2130": "Ġfold", "2131": "Ġmach", "2132": "Ġpuzz", "2133": "Ġpart", "2134": "ling", "2135": "Ġhorse", "2136": "Ġorgan", "2137": "Ġwild", "2138": "Ġprincess", "2139": "pping", "2140": "oose", "2141": "Ġcookie", "2142": "Sure", "2143": "ens", "2144": "Ġhugs", "2145": "ĠMark", "2146": "Ġtaking", "2147": "ung", "2148": "Ġwheel", "2149": "epend", "2150": "Ġcloth", "2151": "ĠLisa", "2152": "Ġsug", "2153": "Ġinstead", "2154": "Ġbubb", "2155": "Ġstring", "2156": "Ġnet", "2157": "Ġdrove", "2158": "iling", "2159": "Ġrude", "2160": "Ġhuge", "2161": "ĠJim", "2162": "Ġcoin", "2163": "Ġstars", "2164": "Ġfighting", "2165": "Be", "2166": "Ġspicy", "2167": "Ġlucky", "2168": "Of", "2169": "Ġcraw", "2170": "Hey", "2171": "Ġbone", "2172": "Ġinv", "2173": "ĠGrandma", "2174": "ors", "2175": "not", "2176": "Ġca", "2177": "pper", "2178": "Ġforget", "2179": "up", "2180": "Ġdi", "2181": "aur", "2182": "Ġsal", "2183": "ĠFinally", "2184": "Ġcannot", "2185": "Ġwhistle", "2186": "ĊĊĠ", "2187": "Ġcard", "2188": "Ġsick", "2189": "Ġpath", "2190": "Ġcou", "2191": "Ġspider", "2192": "Ġwide", "2193": "Lila", "2194": "Ġfoot", "2195": "Ġsnowman", "2196": "Ġsongs", "2197": "Ġlife", "2198": "Ġpillow", "2199": "ize", "2200": "ular", "2201": "ĠJust", "2202": "Later", "2203": "est", "2204": "ĠAnn", "2205": "ert", "2206": "Ġfixed", "2207": "Ġgiant", "2208": "oph", "2209": "rill", "2210": "Ġnod", "2211": "Ġboss", "2212": "Ġlast", "2213": "Ġcomes", "2214": "Ġjoke", "2215": "Ġmoon", "2216": "Ġtaste", "2217": "den", "2218": "Ġmachine", "2219": "Ġgrumpy", "2220": "Ġwave", "2221": "Ġthin", "2222": "Ġdrive", "2223": "Ġcart", "2224": "Ġash", "2225": "Ġser", "2226": "Ġgrab", "2227": "Ġpeace", "2228": "lower", "2229": "Ġdaddy", "2230": "ĠOn", "2231": "ĠLeo", "2232": "ery", "2233": "Ġsel", "2234": "Ġshelf", "2235": "Ġhidden", "2236": "erest", "2237": "Ġsuddenly", "2238": "Ġwasn", "2239": "Ġwrite", "2240": "Ġlanded", "2241": "Ġconfused", "2242": "Ġring", "2243": "Ġchange", "2244": "Ġworm", "2245": "Ġinterest", "2246": "Ġchased", "2247": "oop", "2248": "Ġfruits", "2249": "Ġsour", "2250": "ity", "2251": "Ġmyster", "2252": "Ġbark", "2253": "Ġrad", "2254": "Ġsmooth", "2255": "ĠCome", "2256": "Ġadventures", "2257": "Ġval", "2258": "Ġstepped", "2259": "Ġfle", "2260": "ope", "2261": "Ġoven", "2262": "Ġtakes", "2263": "Ġmissed", "2264": "Ġselfish", "2265": "kin", "2266": "Ġsheep", "2267": "Ġmessy", "2268": "To", "2269": "Ġacross", "2270": "Ġent", "2271": "Ġexp", "2272": "to", "2273": "Ġce", "2274": "Ġlater", "2275": "elly", "2276": "ĠN", "2277": "ife", "2278": "Ġsticks", "2279": "Ġtie", "2280": "St", "2281": "ever", "2282": "ĠLuna", "2283": "Ġstep", "2284": "Ġbought", "2285": "Ġdrew", "2286": "Ġtea", "2287": "pect", "2288": "Ġban", "2289": "irpy", "2290": "box", "2291": "?âĢĿ", "2292": "Ġwash", "2293": "Ġlay", "2294": "Ġpour", "2295": "Ġbeak", "2296": "ose", "2297": "Ġjog", "2298": "Ġgrate", "2299": "Ġducks", "2300": "Ġspe", "2301": "Ġlegs", "2302": "ugg", "2303": "Ġfil", "2304": "ĠBu", "2305": "Ġemp", "2306": "mer", "2307": "Ġhope", "2308": "Ġempty", "2309": "Ġslid", "2310": "Ġfeather", "2311": "Ġsleepy", "2312": "Ġdrum", "2313": "amed", "2314": "ars", "2315": "eth", "2316": "Ġzoo", "2317": "Ġpan", "2318": "Ġphone", "2319": "Ġgrateful", "2320": "Ġfing", "2321": "ions", "2322": "Ġlemon", "2323": "let", "2324": "ĠCat", "2325": "Ġclever", "2326": "ĠMolly", "2327": "Ġsmelly", "2328": "Ġimag", "2329": "Ġsplash", "2330": "Ġinteresting", "2331": "ĠJill", "2332": "Ġsave", "2333": "Ġchick", "2334": "Ġcalm", "2335": "Ġmed", "2336": "Ġwatching", "2337": "Soon", "2338": "izzy", "2339": "izz", "2340": "Ġplate", "2341": "Ġign", "2342": "yard", "2343": "Ġclouds", "2344": "Ġbanan", "2345": "Ġline", "2346": "Ġfaces", "2347": "Ġba", "2348": "Ġact", "2349": "Ġlift", "2350": "Ġthough", "2351": "Ġwolf", "2352": "Ġbackyard", "2353": "wel", "2354": "Ġseemed", "2355": "Ġdogs", "2356": "Ġspray", "2357": "Come", "2358": "Ġprot", "2359": "Ġwhole", "2360": "Ġmot", "2361": "Ġfancy", "2362": "ĠDaddy", "2363": "Ġquest", "2364": "Ġarms", "2365": "Ġpuzzle", "2366": "Ġhealthy", "2367": "Ġsupp", "2368": "ward", "2369": "Ġfinish", "2370": "erly", "2371": "Ġalong", "2372": "llo", "2373": "Ġrocket", "2374": "Ġexplain", "2375": "dge", "2376": "Ġeasy", "2377": "Ġjewel", "2378": "ont", "2379": "Ġpract", "2380": "Ġjelly", "2381": "ĠChirpy", "2382": "Ġtid", "2383": "Ġfake", "2384": "Ġcrayons", "2385": "Ġwondered", "2386": "Ġmaybe", "2387": "Ġscar", "2388": "Ġship", "2389": "Ġnothing", "2390": "onest", "2391": "Ġemb", "2392": "iger", "2393": "Ġpool", "2394": "Ġlonger", "2395": "Ġanyone", "2396": "ĠBe", "2397": "ĠJerry", "2398": "ually", "2399": "Ġfront", "2400": "Ġworking", "2401": "Ġgives", "2402": "irr", "2403": "Ġpack", "2404": "Ġsuch", "2405": "ĠBunny", "2406": "ocked", "2407": "ment", "2408": "Ġbossy", "2409": "ĠDoggy", "2410": "Ġtrouble", "2411": "Ġsmelled", "2412": "Ġsaved", "2413": "Ġpin", "2414": "rass", "2415": "Ġneigh", "2416": "arrass", "2417": "iting", "2418": "Ġhonest", "2419": "Ġav", "2420": "arge", "2421": "Ġembarrass", "2422": "Ġvan", "2423": "Ġforgive", "2424": "Ġtidy", "2425": "Ġweak", "2426": "urse", "2427": "Ġputs", "2428": "unk", "2429": "Ġkick", "2430": "Ġshirt", "2431": "ĠWith", "2432": "Ġmind", "2433": "ĠOllie", "2434": "Ġneighb", "2435": "Ġplants", "2436": "Ġsol", "2437": "ĠMomo", "2438": "Ġgently", "2439": "Ġcozy", "2440": "orrow", "2441": "ming", "2442": "Ġexplor", "2443": "sp", "2444": "Ġmistake", "2445": "Ġyog", "2446": "oc", "2447": "oomy", "2448": "Ġpointed", "2449": "Ġlad", "2450": "Ġaf", "2451": "Ġstood", "2452": "ork", "2453": "Ġonto", "2454": "Ġwaiting", "2455": "Ġjumping", "2456": "Ġprince", "2457": "Ġcross", "2458": "Ġlock", "2459": "Ġcheer", "2460": "Ġqueen", "2461": "ĠWhy", "2462": "ĠMary", "2463": "Ġwing", "2464": "ones", "2465": "we", "2466": "Ġlarge", "2467": "Ġlovely", "2468": "ult", "2469": "Ġsur", "2470": "Ġret", "2471": "And", "2472": "Ġdeer", "2473": "Ġchew", "2474": "Ġcouch", "2475": "Ġbal", "2476": "aughter", "2477": "Ġstret", "2478": "era", "2479": "ĠTheir", "2480": "Ġplaces", "2481": "ĠMy", "2482": "Ġladder", "2483": "oof", "2484": "Ġreturn", "2485": "raid", "2486": "Ġants", "2487": "Ġdish", "2488": "Ġafraid", "2489": "Ġcleaned", "2490": "Ġtomorrow", "2491": "Ġbuilding", "2492": "Ġsandwich", "2493": "Ġperson", "2494": "Sally", "2495": "ned", "2496": "Ġpretended", "2497": "Ġbounce", "2498": "Ġwip", "2499": "gest", "2500": "Ġmatch", "2501": "Ġrich", "2502": "uce", "2503": "Ġpizz", "2504": "Ġgather", "2505": "Ġsearch", "2506": "Ġboring", "2507": "oman", "2508": "ĠSomet", "2509": "Ġteeth", "2510": "Ġhum", "2511": "Kitty", "2512": "My", "2513": "aced", "2514": "Ġdaughter", "2515": "Ġwoman", "2516": "Ġscarf", "2517": "Ġgoes", "2518": "ĠTogether", "2519": "Ġlaw", "2520": "Ġstra", "2521": "Ġswimming", "2522": "Ġfurry", "2523": "Ġsplashed", "2524": "Ġpri", "2525": "Ġloves", "2526": "Ġtrue", "2527": "Ġscreamed", "2528": "Ġlazy", "2529": "Ġgen", "2530": "Ġanswer", "2531": "Ġnumber", "2532": "Ġeag", "2533": "Ġashamed", "2534": "Ġpizza", "2535": "aw", "2536": "Ġappeared", "2537": "Ġfear", "2538": "Ġnearby", "2539": "Ġpowerful", "2540": "Ġflag", "2541": "ĠSt", "2542": "Ġhang", "2543": "vous", "2544": "Ġclown", "2545": "ek", "2546": "Ġchase", "2547": "Ġmotor", "2548": "Ġwand", "2549": "ĠTV", "2550": "Ġrub", "2551": "Ġsuccess", "2552": "Ġchocol", "2553": "ĠIf", "2554": "Ġcreative", "2555": "Ġtrust", "2556": "Ġwearing", "2557": "Ġnoisy", "2558": "Ġmatter", "2559": "pa", "2560": "Ġdig", "2561": "Ġhello", "2562": "Ġner", "2563": "Ġtool", "2564": "Ġsaf", "2565": "ĠBird", "2566": "ado", "2567": "Ġnervous", "2568": "elp", "2569": "Ġtest", "2570": "Ġsmiling", "2571": "Ġsold", "2572": "icked", "2573": "oppy", "2574": "osaur", "2575": "Ġcircle", "2576": "mb", "2577": "Ġmap", "2578": "Ġdrank", "2579": "Ġclass", "2580": "Ġtries", "2581": "Ġchocolate", "2582": "ĠPlease", "2583": "Ġimpress", "2584": "Ġknee", "2585": "Ġgener", "2586": "Ġdinosaur", "2587": "Ġpolite", "2588": "Ġmirr", "2589": "ĠBobby", "2590": "ĠTiny", "2591": "Ġballoons", "2592": "Ġgold", "2593": "Ġrare", "2594": "Ġprotect", "2595": "Ġcand", "2596": "Stop", "2597": "Ġcarried", "2598": "ĠGo", "2599": "ensive", "2600": "Ġap", "2601": "Ġshadow", "2602": "Ġmirror", "2603": "ĠDon", "2604": "Ġbald", "2605": "Ġgun", "2606": "ina", "2607": "Ġexpensive", "2608": "Ġreg", "2609": "iff", "2610": "Ġmysterious", "2611": "ĠSp", "2612": "Ġpump", "2613": "Ġnote", "2614": "Ġhero", "2615": "Ġmarch", "2616": "Ġhar", "2617": "arl", "2618": "Ġicy", "2619": "Ġrespect", "2620": "Ġweird", "2621": "Ġsnee", "2622": "Ġcri", "2623": "Ġgate", "2624": "Ġsoap", "2625": "rag", "2626": "ute", "2627": "issors", "2628": "Ġthese", "2629": "Ġpoor", "2630": "Ġtowel", "2631": "Ġwhale", "2632": "Ġfeet", "2633": "Ġtape", "2634": "Ġdizzy", "2635": "itter", "2636": "Ġgenerous", "2637": "ndpa", "2638": "Ġpres", "2639": "ĠBenny", "2640": "nic", "2641": "Ġdisco", "2642": "Help", "2643": "ventually", "2644": "Ġpicnic", "2645": "Ġmic", "2646": "Ġlead", "2647": "Ġsque", "2648": "Ġembarrassed", "2649": "Ġjourney", "2650": "Ġsugar", "2651": "isp", "2652": "scape", "2653": "Ġboot", "2654": "Ġtent", "2655": "Ġpeaceful", "2656": "Ġfat", "2657": "ĠBear", "2658": "Ġscissors", "2659": "Ġtasted", "2660": "Ġyelled", "2661": "Tommy", "2662": "Ġtick", "2663": "Ġmel", "2664": "Ġbrush", "2665": "Ġdancing", "2666": "ness", "2667": "Ġglue", "2668": "Ġhur", "2669": "Ġrough", "2670": "Ġclap", "2671": "Ġbridge", "2672": "ote", "2673": "Ġdecor", "2674": "Ġcloset", "2675": "Ġcrown", "2676": "Ġstir", "2677": "ual", "2678": "imp", "2679": "Ġprint", "2680": "ĠSometimes", "2681": "owed", "2682": "airs", "2683": "ĠHow", "2684": "ume", "2685": "Ġcap", "2686": "Ġlamp", "2687": "Ġvase", "2688": "Ġscare", "2689": "lebr", "2690": "Ġrelie", "2691": "lves", "2692": "any", "2693": "Ġeld", "2694": "Ġtele", "2695": "Ġcelebr", "2696": "Ġgigg", "2697": "Ġwhisp", "2698": "Ġlog", "2699": "Ġsco", "2700": "Ġblow", "2701": "Ġpainted", "2702": "ĠDucky", "2703": "Ġpay", "2704": "erries", "2705": "Ġwis", "2706": "Ġberries", "2707": "Ġmixed", "2708": "Ġspread", "2709": "Ġwouldn", "2710": "Ġcage", "2711": "Ġbake", "2712": "rob", "2713": "getable", "2714": "Ġmountain", "2715": "Ġadm", "2716": "Ġdrawing", "2717": "Ġbecome", "2718": "Ġfamous", "2719": "Ġknocked", "2720": "Ġbean", "2721": "Ġnorm", "2722": "Ġvegetable", "2723": "asp", "2724": "Ġkicked", "2725": "ustr", "2726": "Ġshark", "2727": "ser", "2728": "Ġincred", "2729": "Ġlose", "2730": "Ġnormal", "2731": "Ġwrap", "2732": "ced", "2733": "Ġgroup", "2734": "Ġthick", "2735": "Ġ3", "2736": "Ġfine", "2737": "Ġglass", "2738": "Ġignor", "2739": "Ġclock", "2740": "Ġteam", "2741": "Ġelderly", "2742": "Ġclear", "2743": "Ġcorner", "2744": "Ġfrustr", "2745": "Ġmighty", "2746": "robe", "2747": "Ġcone", "2748": "Ġincredible", "2749": "ĠBr", "2750": "ighed", "2751": "Dad", "2752": "Ġmoms", "2753": "Ġbalance", "2754": "Ġsock", "2755": "Ġspace", "2756": "Ġjam", "2757": "ragile", "2758": "Ġfright", "2759": "Ġorganized", "2760": "Ġbranches", "2761": "Ġroar", "2762": "port", "2763": "Ġsword", "2764": "alous", "2765": "ĠMama", "2766": "Ġguess", "2767": "Ġfool", "2768": "Ġsell", "2769": "Ġfeed", "2770": "ĠSome", "2771": "Ġwhich", "2772": "Ġhorn", "2773": "Ġpresent", "2774": "Ġjealous", "2775": "Ġyarn", "2776": "ony", "2777": "Ġfragile", "2778": "Ġburn", "2779": "Ġunderstood", "2780": "Ġmis", "2781": "Ġstubb", "2782": "Ġter", "2783": "Ġfrustrated", "2784": "Where", "2785": "ray", "2786": "Ġhose", "2787": "cient", "2788": "Ġspent", "2789": "Ġshoe", "2790": "Ġtaught", "2791": "Ġstubborn", "2792": "Ġtwist", "2793": "Ġcreature", "2794": "Ġchest", "2795": "Ġspoiled", "2796": "Ġrelieved", "2797": "Ġancient", "2798": "ique", "2799": "Ġwake", "2800": "Ġfier", "2801": "Ġpray", "2802": "Ġfierce", "2803": "Ġeggs", "2804": "Ġcab", "2805": "Ġterri", "2806": "Ġbarn", "2807": "Ġpumpkin", "2808": "Ġcomfortable", "2809": "Ġord", "2810": "ym", "2811": "Ġfrightened", "2812": "orry", "2813": "Ġtoug", "2814": "Ġunique", "2815": "Ġmeasure", "2816": "Ġgoat", "2817": "Ġwagon", "2818": "Ġunus", "2819": "Ġbreath", "2820": "Ġfoolish", "2821": "Ġuseful", "2822": "Ġexploring", "2823": "dle", "2824": "Ġstraw", "2825": "Ġunusual", "2826": "Ġdug", "2827": "Ġclay", "2828": "Ġdiscover", "2829": "Ġtomato", "2830": "ĠPe", "2831": "Ġdead", "2832": "Ġfinding", "2833": "Ġpolice", "2834": "Ġwrote", "2835": "Ġclum", "2836": "Ġexam", "2837": "lace", "2838": "Ġwaves", "2839": "Ġsquare", "2840": "Ġhears", "2841": "Ġcabin", "2842": "Ġtells", "2843": "Ġnecklace", "2844": "Ġdull", "2845": "Ġclumsy", "2846": "Ġtough", "2847": "Ġbubbles", "2848": "Ġnosy", "2849": "kn", "2850": "Ġsearched", "2851": "Together", "2852": "Ġwashed", "2853": "Ġbathroom", "2854": "Ġpaws", "2855": "bby", "2856": "ond", "2857": "unn", "2858": "anged", "2859": "Ġboard", "2860": "fic", "2861": "known", "2862": "Ġasking", "2863": "Ġcrazy", "2864": "Ġthankful", "2865": "Ġsunf", "2866": "Ġbitter", "2867": "yal", "2868": "Ġpir", "2869": "berry", "2870": "alk", "2871": "Ġind", "2872": "Ġdiffic", "2873": "Ġrose", "2874": "cil", "2875": "Ġswan", "2876": "Ġbloom", "2877": "Ġunknown", "2878": "ĠElla", "2879": "Ġcovered", "2880": "Ġdifficult", "2881": "Ġadd", "2882": "Ġpencil", "2883": "Ġfinger", "2884": "Ġham", "2885": "Ġhoop", "2886": "Ġjet", "2887": "Ġwitch", "2888": "Ġdrop", "2889": "Me", "2890": "Ġ'", "2891": "Ġchicken", "2892": "Ġgloomy", "2893": "apped", "2894": "Ġloyal", "2895": "als", "2896": "Here", "2897": "Ġwealthy", "2898": "com", "2899": "light", "2900": "Ġunl", "2901": "Ġcats", "2902": "Ġending", "2903": "Ġguit", "2904": "bled", "2905": "shine", "2906": "Ġdove", "2907": "Ġjoined", "2908": "Ġcher", "2909": "anut", "2910": "Ġmov", "2911": "Ġterrible", "2912": "Ġyours", "2913": "iant", "2914": "ĠU", "2915": "ĠRex", "2916": "Ġsalad", "2917": "ĠAndy", "2918": "Ġnuts", "2919": "Ġrat", "2920": "ground", "2921": "Ġtiger", "2922": "Ġpotato", "2923": "Ġmask", "2924": "xible", "2925": "selves", "2926": "Ġvalue", "2927": "Ġchanged", "2928": "Ġmoving", "2929": "Ġexciting", "2930": "ormous", "2931": "ĠMany", "2932": "Ġbody", "2933": "ĠTr", "2934": "Ġtoast", "2935": "Ġrecord", "2936": "erp", "2937": "Ġzip", "2938": "Ġdisg", "2939": "Ġcheap", "2940": "Ġguitar", "2941": "irsty", "2942": "Ġknowing", "2943": "Ġadventur", "2944": "Ġyourself", "2945": "Ġenormous", "2946": "Ġhairy", "2947": "Every", "2948": "Ġshoot", "2949": "ĠBrown", "2950": "Ġbored", "2951": "Ġpepper", "2952": "Ġremind", "2953": "ory", "2954": "land", "2955": "Ġacorn", "2956": "Ġadventurous", "2957": "Ġsunshine", "2958": "Ġsmaller", "2959": "Ġstuff", "2960": "Ġhats", "2961": "Ġsolve", "2962": "ĠJimmy", "2963": "Ġflexible", "2964": "Ġcost", "2965": "rilliant", "2966": "Ġknife", "2967": "Ġperform", "2968": "Ġsnacks", "2969": "Ġnods", "2970": "Ġshore", "2971": "Ġbrilliant", "2972": "Ġthirsty", "2973": "Ġdelicate", "2974": "Ġfrown", "2975": "Ġdisgust", "2976": "Ġcollect", "2977": "Ġstri", "2978": "Ġseeds", "2979": "Ġcounted", "2980": "Ġasleep", "2981": "Ġbanana", "2982": "reen", "2983": "Ġmailbox", "2984": "iness", "2985": "Ġdough", "2986": "Ġtrick", "2987": "Ġneighbor", "2988": "ungle", "2989": "Ġheal", "2990": "live", "2991": "Who", "2992": "Ġstage", "2993": "ident", "2994": "Ġmarket", "2995": "Ġcube", "2996": "Ġstat", "2997": "Ġjungle", "2998": "Ġsquee", "2999": "mbre", "3000": "Ġexplained", "3001": "ates", "3002": "Ġumbre", "3003": "Ġdisgusting", "3004": "Jim", "3005": "fted", "3006": "Ġlab", "3007": "Ġjolly", "3008": "Ġflash", "3009": "und", "3010": "Ġfridge", "3011": "inal", "3012": "pid", "3013": "ilt", "3014": "Ġcrane", "3015": "corn", "3016": "Ġsuit", "3017": "Ġrh", "3018": "iddle", "3019": "Ġsunflower", "3020": "Ġtimes", "3021": "ĠAl", "3022": "erpill", "3023": "Ġcaterpill", "3024": "Ġrelax", "3025": "Ġshiver", "3026": "Ġfour", "3027": "Ġisland", "3028": "iginal", "3029": "Ġharm", "3030": "ict", "3031": "ĠWhile", "3032": "ying", "3033": "Ġstupid", "3034": "Ġmedic", "3035": "ĠInstead", "3036": "Ġcomb", "3037": "Ġgoose", "3038": "Ġcro", "3039": "edient", "3040": "ĠWill", "3041": "Ġstove", "3042": "If", "3043": "Are", "3044": "Ġindepend", "3045": "Mum", "3046": "most", "3047": "Ġspring", "3048": "Ġgem", "3049": "Ġbatter", "3050": "Ġsighed", "3051": "Ġvegetables", "3052": "Ġstones", "3053": "pes", "3054": "Ġshine", "3055": "How", "3056": "Ġmedicine", "3057": "Ġdepend", "3058": "Ġrug", "3059": "ĠYour", "3060": "Ġcareless", "3061": "Ġoriginal", "3062": "Ġstamp", "3063": "Ġgar", "3064": "Ġcries", "3065": "Inside", "3066": "gu", "3067": "Ġcarrots", "3068": "Ġscr", "3069": "Ġsuccessful", "3070": "Ġsauce", "3071": "Ġjeep", "3072": "Ġpopcorn", "3073": "Ġmeal", "3074": "Ġobedient", "3075": "Ġalmost", "3076": "Ġmiddle", "3077": "Ġmagn", "3078": "Ġstudy", "3079": "Ġindependent", "3080": "Ġfearful", "3081": "Ġjack", "3082": "met", "3083": "inky", "3084": "Sorry", "3085": "ĠSammy", "3086": "Ġescape", "3087": "Ġcaterpillar", "3088": "Ġserious", "3089": "Ġpeanut", "3090": "Ġbedroom", "3091": "Ġeager", "3092": "aken", "3093": "Ġgets", "3094": "Ġparrot", "3095": "Ġstatue", "3096": "Ġhelmet", "3097": "Ġpebb", "3098": "ĠNo", "3099": "Ġfountain", "3100": "Ġraven", "3101": "Ġang", "3102": "Ġpasta", "3103": "Ġumbrella", "3104": "Ġcompet", "3105": "There", "3106": "Ġjacket", "3107": "Ġbelonged", "3108": "Ġdest", "3109": "Ġfilthy", "3110": "Ġdesign", "3111": "Ġborrow", "3112": "Ġcam", "3113": "erable", "3114": "Ġhouses", "3115": "Ġprize", "3116": "Ġhay", "3117": "Ġbrace", "3118": "Ġstanding", "3119": "Ġmiserable", "3120": "Ġraced", "3121": "Ġtaken", "3122": "ages", "3123": "Ġfork", "3124": "Ġcrayon", "3125": "Ġpainting", "3126": "io", "3127": "Ġtriang", "3128": "Ġimpressive", "3129": "Ġchoose", "3130": "Ġfig", "3131": "Ġtied", "3132": "iable", "3133": "Ġspotted", "3134": "Ġlifted", "3135": "Ġslipped", "3136": "ours", "3137": "Ġtank", "3138": "Ġthoughtful", "3139": "Ġdependable", "3140": "Ġsteal", "3141": "Ġgarage", "3142": "enny", "3143": "Ġbuilt", "3144": "Ġmush", "3145": "Ġer", "3146": "ipe", "3147": "Ġmole", "3148": "Ġcrawled", "3149": "Ġscale", "3150": "Ġboats", "3151": "Ġpian", "3152": "Ġpant", "3153": "Ġhammer", "3154": "Ġbottom", "3155": "lph", "3156": "Ġcheerful", "3157": "Ġusing", "3158": "Ġsmoke", "3159": "Ġpicks", "3160": "Ġmoder", "3161": "berries", "3162": "Ġshows", "3163": "rn", "3164": "Ġpiano", "3165": "Ġmagnet", "3166": "dile", "3167": "codile", "3168": "Ġhurts", "3169": "inary", "3170": "Ġref", "3171": "Ġcrack", "3172": "Ġeng", "3173": "Ġaunt", "3174": "Ġmelon", "3175": "Ġwaff", "3176": "Ġmodern", "3177": "Ġdolph", "3178": "unnel", "3179": "cream", "3180": "pack", "3181": "Ġtunnel", "3182": "oin", "3183": "Ġarrow", "3184": "Ġreliable", "3185": "Ġhopping", "3186": "Ġmushroom", "3187": "Ġjug", "3188": "Timmy", "3189": "Ġsquash", "3190": "Ġgum", "3191": "Ġsink", "3192": "Ġmovie", "3193": "Ġtax", "3194": "Ġflute", "3195": "Ġbeet", "3196": "Ġlean", "3197": "Their", "3198": "iv", "3199": "Ġpopular", "3200": "opter", "3201": "icopter", "3202": "Ġcryst", "3203": "Ġones", "3204": "Ġsil", "3205": "Ġcompetit", "3206": "Ġhelicopter", "3207": "aser", "3208": "Ġneeds", "3209": "ipop", "3210": "llipop", "3211": "Ġcrocodile", "3212": "Ġliz", "3213": "Molly", "3214": "Ġpress", "3215": "Ġtroubled", "3216": "Ġpige", "3217": "Ġlocked", "3218": "Ġtricks", "3219": "Ġlollipop", "3220": "Ġplayful", "3221": "Ġhumble", "3222": "Ġtaxi", "3223": "Ġkissed", "3224": "Ġlow", "3225": "appy", "3226": "comfortable", "3227": "amond", "3228": "Ġuncomfortable", "3229": "Ġrid", "3230": "host", "3231": "Ġwander", "3232": "atch", "3233": "Ġangel", "3234": "edy", "3235": "cles", "3236": "Ġtorn", "3237": "Ġgrace", "3238": "Ġanx", "3239": "Ġwrapped", "3240": "Ġmuff", "3241": "Ġtwig", "3242": "Ġpants", "3243": "Ġdisappoin", "3244": "ĠSn", "3245": "Ġhelps", "3246": "Ġdiamond", "3247": "Ġcamera", "3248": "atter", "3249": "oto", "3250": "Ġanxious", "3251": "Ġghost", "3252": "Ġtears", "3253": "Ġruined", "3254": "cident", "3255": "ĠJenny", "3256": "ilty", "3257": "Ġquar", "3258": "aff", "3259": "ĠEven", "3260": "Ġfis", "3261": "opl", "3262": "Ġbelt", "3263": "eropl", "3264": "Ġenv", "3265": "Ġguilty", "3266": "Ġbull", "3267": "Ġaeropl", "3268": "Ġhelpless", "3269": "Ġhappiness", "3270": "Ġlizard", "3271": "Ġboys", "3272": "cut", "3273": "ext", "3274": "Ġcere", "3275": "Ġwalks", "3276": "cean", "3277": "Ġpassed", "3278": "Ġmeant", "3279": "Ġocean", "3280": "Ġfluffy", "3281": "Ġwire", "3282": "Ġnail", "3283": "Ġbracelet", "3284": "Ġdeaf", "3285": "zed", "3286": "Ġstretch", "3287": "Ġcandle", "3288": "Ġcact", "3289": "tt", "3290": "Ġbeetle", "3291": "Ġmop", "3292": "Ġharmless", "3293": "umpet", "3294": "Ġordinary", "3295": "Ġanswered", "3296": "Ġcollar", "3297": "Ġcop", "3298": "Ġbees", "3299": "Ġtire", "3300": "Ġshape", "3301": "Ġquarrel", "3302": "Ġradio", "3303": "Ġflashlight", "3304": "Ġcrystal", "3305": "Ġharder", "3306": "Ġpoured", "3307": "Ġtrumpet", "3308": "Ġengine", "3309": "Mama", "3310": "Ġpersist", "3311": "Ġhunt", "3312": "Ġtooth", "3313": "Ġcereal", "3314": "Ġinvited", "3315": "Ġcomput", "3316": "Ġtag", "3317": "Ġoffice", "3318": "Ġmelt", "3319": "Ġspill", "3320": "Ġcharm", "3321": "coa", "3322": "Ġlit", "3323": "Ġscoot", "3324": "Ġcomet", "3325": "Ġtriangle", "3326": "ief", "3327": "Ġmug", "3328": "Ġrep", "3329": "ube", "3330": "Ġyogurt", "3331": "Ġspend", "3332": "Ġcompass", "3333": "Ġaccident", "3334": "Ġshade", "3335": "hett", "3336": "aghett", "3337": "aghetti", "3338": "Ġdisappointed", "3339": "Ġlicked", "3340": "Ġcactus", "3341": "Ġpale", "3342": "Ġcush", "3343": "Ġfigure", "3344": "Ġregular", "3345": "Ġgiving", "3346": "Ġavoc", "3347": "Ġpro", "3348": "Ġsheet", "3349": "Ġwhispered", "3350": "aze", "3351": "uth", "3352": "ellig", "3353": "Ġcreate", "3354": "Ġbarber", "3355": "Ġintellig", "3356": "Ġpipe", "3357": "Ġrode", "3358": "Ġroof", "3359": "Jane", "3360": "Ġthread", "3361": "ither", "3362": "Ġvi", "3363": "Ġload", "3364": "Ġlibr", "3365": "Ġgifted", "3366": "ccol", "3367": "Ġpracticed", "3368": "Ġdelight", "3369": "ccoli", "3370": "Ġharsh", "3371": "asses", "3372": "Ġpow", "3373": "Ġdust", "3374": "ĠTrue", "3375": "Ġbicy", "3376": "azz", "3377": "Ġspaghetti", "3378": "Ġcompassion", "3379": "Ġsailed", "3380": "urkey", "3381": "ubby", "3382": "Ġforward", "3383": "Ġpersistent", "3384": "Ġspeed", "3385": "Ġmitten", "3386": "Ġcocoa", "3387": "Ġenvel", "3388": "Ġquestions", "3389": "Ġcomputer", "3390": "Ġcoo", "3391": "Ġfeathers", "3392": "hip", "3393": "Ġglove", "3394": "ging", "3395": "Bobo", "3396": "Ġrice", "3397": "Ġshrimp", "3398": "Ġdesk", "3399": "Ġstream", "3400": "Ġinse", "3401": "Ġpigeon", "3402": "Ġcharming", "3403": "Ġears", "3404": "Ġcarp", "3405": "lcan", "3406": "Ġraft", "3407": "Ġenvious", "3408": "Ġknot", "3409": "Ġturkey", "3410": "Ġstronger", "3411": "omes", "3412": "Ġcoins", "3413": "Ġtap", "3414": "lcano", "3415": "weet", "3416": "Ġtrap", "3417": "umbers", "3418": "Ġaeroplane", "3419": "Ġtrunk", "3420": "Ġwheat", "3421": "Ġboxes", "3422": "Ġchubby", "3423": "Ġcarpet", "3424": "Ġrestless", "3425": "Ġintelligent", "3426": "Ġtube", "3427": "Ġspun", "3428": "Ġdreams", "3429": "Ġfriendship", "3430": "ulif", "3431": "olin", "3432": "Ġhalf", "3433": "Ġloop", "3434": "Ġcrawl", "3435": "Ġbroccoli", "3436": "Ġonion", "3437": "Ġdeliver", "3438": "anger", "3439": "Ġacce", "3440": "Ġvide", "3441": "Ġvolcano", "3442": "ĠJake", "3443": "Ġsle", "3444": "Ġtrack", "3445": "Ġbri", "3446": "Ġcaulif", "3447": "Ġvine", "3448": "ye", "3449": "Ġticket", "3450": "Ġthief", "3451": "essie", "3452": "cycle", "3453": "Ġlouder", "3454": "Ġinsect", "3455": "Ġnumbers", "3456": "asing", "3457": "Ġyaw", "3458": "Ġhaircut", "3459": "ital", "3460": "Ġsleeping", "3461": "Ġmill", "3462": "Ġeventually", "3463": "Ġalert", "3464": "Ġexcite", "3465": "Ġpebble", "3466": "Ġhosp", "3467": "Ġattract", "3468": "Ġplanet", "3469": "ĠToday", "3470": "Ġuniver", "3471": "isted", "3472": "ulu", "3473": "Ġhospital", "3474": "Ġeraser", "3475": "Ġreturned", "3476": "Ġdestro", "3477": "Ġgraceful", "3478": "Ġhappening", "3479": "ache", "3480": "ĠOK", "3481": "ĠEmily", "3482": "Ġdecide", "3483": "Ġlearning", "3484": "Ġscreen", "3485": "rework", "3486": "Ġnicely", "3487": "Ġleop", "3488": "Ġcauliflower", "3489": "Ġcompetitive", "3490": "Ġpoem", "3491": "Ġcelebrate", "3492": "Ġcurt", "3493": "Ġpeach", "3494": "Ġsoldier", "3495": "Ġsaus", "3496": "Ġparade", "3497": "atient", "3498": "Ġattractive", "3499": "Ġcurtain", "3500": "Ġdolphin", "3501": "Ġbase", "3502": "Ġviolin", "3503": "Ġways", "3504": "Go", "3505": "ats", "3506": "Ġtravel", "3507": "ten", "3508": "Ġrod", "3509": "Ġignorant", "3510": "ulb", "3511": "Ġwheels", "3512": "Ġyach", "3513": "Ġscatter", "3514": "Ġdeter", "3515": "Ġcompassionate", "3516": "Ġbarrel", "3517": "Ġenvelope", "3518": "Ġbubble", "3519": "Ġlying", "3520": "Ġfirework", "3521": "Ġsort", "3522": "Ġquestion", "3523": "zzy", "3524": "ĠPipp", "3525": "Ġscooter", "3526": "Ġdeterm", "3527": "Ġrag", "3528": "Ġthu", "3529": "Ġbicycle", "3530": "elery", "3531": "Ġneedle", "3532": "ĠFr", "3533": "Ġjudge", "3534": "Ġbulb", "3535": "Ġleopard", "3536": "Ġtem", "3537": "Ġyacht", "3538": "Ġpony", "3539": "Ġcricket", "3540": "Ġorder", "3541": "Ġhomes", "3542": "Ġador", "3543": "tern", "3544": "Ġtruth", "3545": "Ġhook", "3546": "dom", "3547": "Ġrubbed", "3548": "ete", "3549": "igator", "3550": "Ġbushes", "3551": "Sarah", "3552": "Ġuncle", "3553": "Ġcushion", "3554": "Ġspell", "3555": "Ġgrown", "3556": "Ġcooked", "3557": "Ġadorable", "3558": "Ġchalk", "3559": "Ġsoar", "3560": "Ġpurse", "3561": "Ġskin", "3562": "Ġthemselves", "3563": "Ġimpatient", "3564": "Ġcelery", "3565": "Ġtray", "3566": "Ġshells", "3567": "Ġpengu", "3568": "Ġsniff", "3569": "Ġprun", "3570": "Ġwalls", "3571": "Ġseal", "3572": "Ġlively", "3573": "Ġcase", "3574": "Ġalligator", "3575": "Ġdistant", "3576": "Ġradish", "3577": "Ġsaying", "3578": "Ġspeak", "3579": "Ġmotorcycle", "3580": "Ġmeat", "3581": "Ġsend", "3582": "illa", "3583": "Ġspinning", "3584": "Ġforth", "3585": "Ġcounting", "3586": "Ġenth", "3587": "Ġbounced", "3588": "Ġchain", "3589": "Ġed", "3590": "Ġcleaning", "3591": "ebra", "3592": "Ġfilm", "3593": "Ġslept", "3594": "Ġpit", "3595": "Ġsurf", "3596": "Ġmarry", "3597": "usia", "3598": "Ġwallet", "3599": "Ġenthusia", "3600": "Ġmetal", "3601": "urb", "3602": "ebook", "3603": "Ġbin", "3604": "Ġweek", "3605": "Ġnotebook", "3606": "Ġwiped", "3607": "Ġskip", "3608": "ision", "3609": "chair", "3610": "Ġbiggest", "3611": "Ġimpro", "3612": "Ġavocado", "3613": "Ġbehave", "3614": "Ġdestroy", "3615": "vator", "3616": "Ġbandage", "3617": "Ġlaughs", "3618": "Ġsteak", "3619": "Ġpattern", "3620": "ĠSh", "3621": "Ġpost", "3622": "Ġelevator", "3623": "ĠBuzz", "3624": "usie", "3625": "Ġdive", "3626": "Ġshut", "3627": "Ġskipped", "3628": "Ġunlock", "3629": "Ġdiary", "3630": "dest", "3631": "ject", "3632": "Ġzebra", "3633": "Ġbags", "3634": "ating", "3635": "Ġarmchair", "3636": "rage", "3637": "aged", "3638": "Ġdisturb", "3639": "Ġoy", "3640": "Ġpole", "3641": "Ġshowing", "3642": "Ġgathered", "3643": "Ġclub", "3644": "Ġnurse", "3645": "bul", "3646": "Ġearth", "3647": "Ġenc", "3648": "Ġstranger", "3649": "Ġsweater", "3650": "Ġjellyfish", "3651": "Ġscrew", "3652": "Ġtemp", "3653": "ĠPoppy", "3654": "Ġcompl", "3655": "Ġmixer", "3656": "Give", "3657": "Ġskull", "3658": "Ġlime", "3659": "Ġbump", "3660": "bulance", "3661": "Ġambulance", "3662": "nam", "3663": "Ġfather", "3664": "Ġjournal", "3665": "Gra", "3666": "Ġloudly", "3667": "ito", "3668": "Ġfolder", "3669": "Ġshield", "3670": "ĠBet", "3671": "ĠLulu", "3672": "Ġlibrary", "3673": "ĠPeter", "3674": "Ġbuttons", "3675": "Ġplayground", "3676": "Ġtrucks", "3677": "Ġink", "3678": "Ġlights", "3679": "Ġtummy", "3680": "Ġpointing", "3681": "Ġcity", "3682": "Ġdecorate", "3683": "Ġstation", "3684": "irit", "3685": "Ġprep", "3686": "Ġfalls", "3687": "quito", "3688": "ĠPolly", "3689": "Billy", "3690": "Ġfu", "3691": "ĠFo", "3692": "ention", "3693": "nger", "3694": "ĠBirdy", "3695": "lies", "3696": "Ġherb", "3697": "nament", "3698": "Ġornament", "3699": "Ġmodest", "3700": "Ġguard", "3701": "Ġmos", "3702": "Ġknows", "3703": "Ġcord", "3704": "Ġpolish", "3705": "Ġmarble", "3706": "oby", "3707": "Ġmosquito", "3708": "umbled", "3709": "Ġsalt", "3710": "Ġattic", "3711": "Ġwhenever", "3712": "Ġvest", "3713": "ctop", "3714": "Ġresc", "3715": "Ġyet", "3716": "Ġple", "3717": "Ġdisappeared", "3718": "ceed", "3719": "Ġstrawberry", "3720": "Ġonce", "3721": "ĠMum", "3722": "Ġkay", "3723": "Ġbrothers", "3724": "Ġitch", "3725": "Ġpirate", "3726": "Ġfootball", "3727": "Ġsplit", "3728": "kele", "3729": "keleton", "3730": "Ġhipp", "3731": "Ġaut", "3732": "Ġled", "3733": "uring", "3734": "ctopus", "3735": "Ġdriving", "3736": "Ġcable", "3737": "Ġsupport", "3738": "Ġcalling", "3739": "Ġcupboard", "3740": "aky", "3741": "ushed", "3742": "Ġwishes", "3743": "Ġcomplet", "3744": "Ġtripped", "3745": "Ġroot", "3746": "Ġkayak", "3747": "Ġoctopus", "3748": "obile", "3749": "Ġadded", "3750": "Ġedge", "3751": "Ġmild", "3752": "stic", "3753": "Ġdetermined", "3754": "Ġsucceed", "3755": "?\".", "3756": "Ġreading", "3757": "omobile", "3758": "Ġcoal", "3759": "Well", "3760": "gl", "3761": "utes", "3762": "par", "3763": "Ġsuggest", "3764": "Ġstack", "3765": "Ġthunder", "3766": "Ġkindness", "3767": "Ġautomobile", "3768": "Ġcomplain", "3769": "Ġenthusiastic", "3770": "Ġsneeze", "3771": "Ġcartoon", "3772": "Ġyoga", "3773": "ĠLittle", "3774": "Ġgrowl", "3775": "htub", "3776": "Ġflea", "3777": "la", "3778": "Ġmeadow", "3779": "Ġdrawer", "3780": "Ġbathtub", "3781": "Ġribb", "3782": "ophone", "3783": "Ġmeans", "3784": "Ġhall", "3785": "Ġgolf", "3786": "Ġskeleton", "3787": "Ġmath", "3788": "Ġveil", "3789": "Ġhunter", "3790": "Ġgor", "3791": "Ġflame", "3792": "Ġpoke", "3793": "Ġvideo", "3794": "Ġchess", "3795": "Ġtroph", "3796": "Ġcups", "3797": "Ġglowing", "3798": "Ġmatt", "3799": "Ġoyster", "3800": "work", "3801": "Ġpenny", "3802": "Ġspear", "3803": "Ġitself", "3804": "Ġdrawings", "3805": "Ġhippo", "3806": "Ġrepair", "3807": "Ġswitch", "3808": "glasses", "3809": "Ġsunglasses", "3810": "Ġteleph", "3811": "Ġcostume", "3812": "Ġdess", "3813": "Ġzipp", "3814": ",âĢĿ", "3815": "Ġrepe", "3816": "Ġmuffin", "3817": "Ġarg", "3818": "Ġpastry", "3819": "Ġpun", "3820": "Ġrolling", "3821": "Ġminutes", "3822": "Ġpacked", "3823": "Ġmakeup", "3824": "iron", "3825": "ric", "3826": "ĠPeople", "3827": "Ġwaffle", "3828": "case", "3829": "Ġhandle", "3830": "Ġpear", "3831": "Ġmaze", "3832": "Ġtelephone", "3833": "Ġpine", "3834": "ait", "3835": "Ġgear", "3836": "Ġhedge", "3837": "Ġmattress", "3838": "Ġpackage", "3839": "aving", "3840": "ĠMiss", "3841": "Ġshocked", "3842": "ines", "3843": "Ġtrophy", "3844": "Ġpowder", "3845": "Ġknight", "3846": "Ġcob", "3847": "Ġmissile", "3848": "Ġmanaged", "3849": "Ġframe", "3850": "Ġencou", "3851": "Ġwife", "3852": "Ġok", "3853": "Ġsepar", "3854": "web", "3855": "Ġstairs", "3856": "Ġrot", "3857": "Ġcamp", "3858": "urch", "3859": "rophone", "3860": "Ġmagaz", "3861": "Ġstrugg", "3862": "Ġcolour", "3863": "Ġgrapes", "3864": "time", "3865": "Ġfile", "3866": "head", "3867": "ĠTina", "3868": "Ġbasketball", "3869": "Bye", "3870": "old", "3871": "per", "3872": "Ġcobweb", "3873": "Re", "3874": "Jimmy", "3875": "ĠTweet", "3876": "See", "3877": "Ġperm", "3878": "Ġwool", "3879": "ĠDan", "3880": "Ġmicrophone", "3881": "esday", "3882": "Ġeye", "3883": "Ġleash", "3884": "Ġgasp", "3885": "iew", "3886": "keep", "3887": "Ġweep", "3888": "Ġbarking", "3889": "ature", "3890": "Ġsafely", "3891": "Ġtear", "3892": "Ġview", "3893": "ffe", "3894": "Ġslides", "3895": "Ġsteps", "3896": "istol", "3897": "ffee", "3898": "Ġbananas", "3899": "Ġstaff", "3900": "Ġspirit", "3901": "Ġtask", "3902": "Ġgiggled", "3903": "Ġhoc", "3904": "Ġhockey", "3905": "Ġvend", "3906": "Ġthose", "3907": "Ġgorilla", "3908": "Jill", "3909": "Ġcooler", "3910": "ĠRose", "3911": "was", "3912": "cing", "3913": "Ġearly", "3914": "Ġmarched", "3915": "rosc", "3916": "Ġmint", "3917": "ĠLook", "3918": "washer", "3919": "Ġflour", "3920": "Ġhotel", "3921": "hic", "3922": "Ġsailor", "3923": "Ġdessert", "3924": "Ġphoto", "3925": "roscope", "3926": "Ġvehic", "3927": "ilot", "3928": "Ġoften", "3929": "Ġchurch", "3930": "ĠPete", "3931": "Ġcooking", "3932": "Ġremain", "3933": "Ġfive", "3934": "Ġsausage", "3935": "otter", "3936": "Ġten", "3937": "Ġtools", "3938": "Ġmedal", "3939": "Ġeither", "3940": "Ġfireman", "3941": "chor", "3942": "Ġgrandpa", "3943": "Ġotter", "3944": "Ġbaseball", "3945": "Ġpretending", "3946": "Ġpistol", "3947": "Ġdishwasher", "3948": "Ġrever", "3949": "Ġorganize", "3950": "Ġpee", "3951": "Ġvendor", "3952": "Ġknock", "3953": "Ġsight", "3954": "Ġgrill", "3955": "Ġtemple", "3956": "Ġbattery", "3957": "Ġthinking", "3958": "Ġopens", "3959": "Ġow", "3960": "Ġrealised", "3961": "Ġiron", "3962": "Ġlaser", "3963": "Ġsne", "3964": "Ġsandbox", "3965": "Ġoil", "3966": "Ġpatch", "3967": "Ġhours", "3968": "Ġrise", "3969": "Ġwhip", "3970": "'d", "3971": "ctory", "3972": "ĠGive", "3973": "Ġanchor", "3974": "Ġtrash", "3975": "ense", "3976": "Ġshort", "3977": "ney", "3978": "ĠBetty", "3979": "Ġrhin", "3980": "Ġfactory", "3981": "seum", "3982": "Ġmay", "3983": "Ġward", "3984": "ately", "3985": "Ġcardboard", "3986": "ugged", "3987": "Ġlotion", "3988": "Al", "3989": "Ġmessage", "3990": "Ġvalu", "3991": "Ġwardrobe", "3992": "Ġcell", "3993": "Ġmuseum", "3994": "apers", "3995": "Ġur", "3996": "ination", "3997": "Ġhanging", "3998": "ucet", "3999": "ailable", "4000": "ĠSunny", "4001": "ĠZoom", "4002": "Ġhive", "4003": "eer", "4004": "Ġtowers", "4005": "keeper", "4006": "Ġblackboard", "4007": "Ġmem", "4008": "Ġexcitement", "4009": "Ġcoffee", "4010": "Ġpilot", "4011": "ready", "4012": "Fluffy", "4013": "Ġnapkin", "4014": "Ġpenguin", "4015": "ron", "4016": "Ġcheck", "4017": "Ġreward", "4018": "loo", "4019": "Ġquit", "4020": "ĠPippin", "4021": "Ġcane", "4022": "Ġpicking", "4023": "place", "4024": "ĠSnow", "4025": "azor", "4026": "Ġfaucet", "4027": "Ġig", "4028": "Ġpassport", "4029": "ĠRob", "4030": "Ġstumbled", "4031": "Ġdreamed", "4032": "Ġigloo", "4033": "ĠBessie", "4034": "aroo", "4035": "angaroo", "4036": "Ġfreez", "4037": "Ġjuicy", "4038": "Ġallowed", "4039": "play", "4040": "Ġholds", "4041": "Ġalready", "4042": "Ġavailable", "4043": "Ġsett", "4044": "Ġbathe", "4045": "Ġtornado", "4046": "imney", "4047": "Ġfingers", "4048": "htray", "4049": "Ġhanger", "4050": "Ġnewsp", "4051": "Ġsize", "4052": "Ġlaund", "4053": "Ġlend", "4054": "Ġchimney", "4055": "Ġlaundry", "4056": "Ġoak", "4057": "Ġfisher", "4058": "Ġkangaroo", "4059": "Ġmen", "4060": "ĠEverywhere", "4061": "Ġtelling", "4062": "Em", "4063": "Ġnovel", "4064": "body", "4065": "Ġmummy", "4066": "Ġpal", "4067": "Ġmule", "4068": "Ġcherries", "4069": "Ġnotice", "4070": "Ġpractice", "4071": "Ġspilled", "4072": "Ġreind", "4073": "Ġcomplete", "4074": "Ġenjoying", "4075": "Ġmicroscope", "4076": "arian", "4077": "ampoo", "4078": "Ġgain", "4079": "Ġsub", "4080": "Ġfireplace", "4081": "Ġimagine", "4082": "anda", "4083": "Ġdisplay", "4084": "ocer", "4085": "ĠZip", "4086": "Ġfastest", "4087": "Ġmagazine", "4088": "Ġhurry", "4089": "Ġcabinet", "4090": "Ġshrink", "4091": "Ġashtray", "4092": "Wait", "4093": "Ġcows", "4094": "ĠSpike", "4095": "Joe", "4096": "gen", "4097": "Ġpalace", "4098": "Ġimprove", "4099": "aches", "4100": "Ġrake", "4101": "Ġreindeer", "4102": "Ġfalling", "4103": "oceros", "4104": "Ġskirt", "4105": "ured", "4106": "Ġdiscovered", "4107": "Ġstared", "4108": "Ġroared", "4109": "aid", "4110": "Ġsilver", "4111": "Ġtub", "4112": "Ġtrail", "4113": "Is", "4114": "Ġminer", "4115": "come", "4116": "Ġbill", "4117": "iction", "4118": "Ġfog", "4119": "Ġax", "4120": "stairs", "4121": "ilet", "4122": "Ġhut", "4123": "Ġhappier", "4124": "Ġtaller", "4125": "ictionary", "4126": "Ġoats", "4127": "Ġfisherman", "4128": "Ġobject", "4129": "Ġpor", "4130": "vision", "4131": "Ġvaluable", "4132": "Ġshampoo", "4133": "Ġholes", "4134": "Ġoffered", "4135": "Ġboots", "4136": "Ġrhinoceros", "4137": "Ġnames", "4138": "Ġtoilet", "4139": "Ġclimbing", "4140": "Ġblin", "4141": "vice", "4142": "Ow", "4143": "Ġstretched", "4144": "iest", "4145": "Ġzipper", "4146": "Ġlistening", "4147": "Ġsym", "4148": "Ġbathrobe", "4149": "alend", "4150": "Ġjewelry", "4151": "ĠHere", "4152": "Ġjokes", "4153": "Ġtelevision", "4154": "Ġprov", "4155": "Ġcalend", "4156": "Ġstops", "4157": "Ġaxe", "4158": "Ġjumps", "4159": "Ġfuel", "4160": "cu", "4161": "Ġsparkly", "4162": "Ġperfume", "4163": "ĠSusie", "4164": "Ġbury", "4165": "bol", "4166": "Mummy", "4167": "lu", "4168": "Ġpressed", "4169": "ĠKim", "4170": "reek", "4171": "Ġrece", "4172": "fa", "4173": "ĠToby", "4174": "Ġneat", "4175": "Ġcreek", "4176": "Ġpopped", "4177": "Ġopera", "4178": "Ġcalendar", "4179": "Ġsnap", "4180": "Ġgasped", "4181": "Ġattach", "4182": "Ġsymbol", "4183": "Ġtuna", "4184": "ĠMar", "4185": "Ġpapers", "4186": "Mr", "4187": "Ġunpack", "4188": "Ġresist", "4189": "Ġdictionary", "4190": "Ġsubway", "4191": "Ġletters", "4192": "Ġfreezer", "4193": "Ġchose", "4194": "Ġpinch", "4195": "zag", "4196": "Ġspoke", "4197": "Ġanyway", "4198": "Ġsuper", "4199": "Ġporch", "4200": "Ġhelper", "4201": "affe", "4202": "Ġbikes", "4203": "Ġlie", "4204": "arry", "4205": "iches", "4206": "Ġtightly", "4207": "Ġcomfort", "4208": "Ġshaking", "4209": "Ġbookcase", "4210": "Ġson", "4211": "Ġrazor", "4212": "aurant", "4213": "Ġsandwiches", "4214": "ĠAre", "4215": "igzag", "4216": "Ġweigh", "4217": "Ġagainst", "4218": "Ġstickers", "4219": "Ġrestaurant", "4220": "Ġnewspaper", "4221": "Ġblouse", "4222": "Ġvehicle", "4223": "Ġswinging", "4224": "Ġped", "4225": "Ġdisag", "4226": "Ġnature", "4227": "Ġsquirrels", "4228": "ival", "4229": "Ġbelongs", "4230": "Ġswamp", "4231": "Ġbutterflies", "4232": "Ġgym", "4233": "del", "4234": "Ġinclu", "4235": "Ġgrowing", "4236": "Ġbuckle", "4237": "omed", "4238": "Ġstirred", "4239": "Ġmustache", "4240": "Ġbillboard", "4241": "xy", "4242": "Ġbeep", "4243": "te", "4244": "Ġalarm", "4245": "Ġlightning", "4246": "Ġlip", "4247": "Ġfest", "4248": "Ġhung", "4249": "utor", "4250": "Ġdistance", "4251": "ogn", "4252": "Ġcards", "4253": "Ġobser", "4254": "Ġagree", "4255": "Little", "4256": "Ġext", "4257": "Ġtease", "4258": "Ġrecogn", "4259": "Ġrubber", "4260": "ik", "4261": "Ġhate", "4262": "fast", "4263": "ef", "4264": "Ouch", "4265": "Ġdoesn", "4266": "Ġmusician", "4267": "Ġadvice", "4268": "Ġbeef", "4269": "Ġserve", "4270": "aspoon", "4271": "Ġsweetie", "4272": "Ġmodel", "4273": "lter", "4274": "Ġcrib", "4275": "Ġblueberries", "4276": "Ġsofa", "4277": "Ġcircles", "4278": "Ġbreakfast", "4279": "Ġtutor", "4280": "asis", "4281": "Ġbookshe", "4282": "Ġgiraffe", "4283": "stri", "4284": "Ġfestival", "4285": "Ġseparate", "4286": "Ġshelter", "4287": "Ġgas", "4288": "Ġairport", "4289": "Ġolive", "4290": "Ġrail", "4291": "Ġbookshelf", "4292": "Ġfrogs", "4293": "Ġteaspoon", "4294": "Ġreverse", "4295": "Ġjunk", "4296": "Ġriding", "4297": "Ġpleased", "4298": "Ġdrain", "4299": "ĠMrs", "4300": "Ġwipe", "4301": "Ġoasis", "4302": "Ġsoil", "4303": "Ġahead", "4304": "Ġrescue", "4305": "Ġleaving", "4306": "ummer", "4307": "Ġpainter", "4308": "Ġsqueeze", "4309": "Ġchance", "4310": "Ġpoked", "4311": "Ġknob", "4312": "ĠTeddy", "4313": "Ġpeeked", "4314": "Ġlumber", "4315": "Ġtrains", "4316": "Ġextra", "4317": "Ġslipp", "4318": "Ġquiz", "4319": "Ġrefused", "4320": "res", "4321": "rmomet", "4322": "Ġpage", "4323": "Ġrules", "4324": "Ġhappens", "4325": "Ġsounded", "4326": "Ġins", "4327": "Ġpoint", "4328": "Ġwinter", "4329": "Ġdancer", "4330": "ĠGrandpa", "4331": "Ġbirdc", "4332": "Ġdisappear", "4333": "rmometer", "4334": "ĠDolly", "4335": "Ġweather", "4336": "Ġwaste", "4337": "Ġlic", "4338": "Ġbirdcage", "4339": "Ġtheater", "4340": "Ġreef", "4341": "Ġcarrying", "4342": "Daisy", "4343": "Ġinvite", "4344": "iform", "4345": "Ġgoal", "4346": "Ġostri", "4347": "Ġuniform", "4348": "Ġswung", "4349": "Ġtrade", "4350": "Ġcliff", "4351": "ience", "4352": "Ġlawn", "4353": "ola", "4354": "Ġleaned", "4355": "ĠPandy", "4356": "angu", "4357": "Ġaccept", "4358": "Ġadmire", "4359": "Ġfort", "4360": "Ġaccidentally", "4361": "Ġpastel", "4362": "bbles", "4363": "Ġstom", "4364": "Ġlangu", "4365": "Ġtwir", "4366": "Ġsuff", "4367": "Ġpanda", "4368": "riger", "4369": "Ġbet", "4370": "rigerator", "4371": "Ġpeek", "4372": "render", "4373": "Ġblinked", "4374": "Ġstarts", "4375": "na", "4376": "Ġrefrigerator", "4377": "Ġanywhere", "4378": "!\".", "4379": "Ġimagined", "4380": "Ġdreaming", "4381": "Ġremove", "4382": "night", "4383": "Ġshower", "4384": "ĠLee", "4385": "ĠCo", "4386": "Ġclassroom", "4387": "Ġceiling", "4388": "Ġcaring", "4389": "ium", "4390": "Ġgrand", "4391": "Ġmissing", "4392": "aked", "4393": "Ġlicense", "4394": "Ġstable", "4395": "Ġthermometer", "4396": "Ġmonkeys", "4397": "astic", "4398": "Ġwarned", "4399": "Ġsummer", "4400": "ĠWhere", "4401": "Ġabove", "4402": "Ġbrick", "4403": "ected", "4404": "Ġcudd", "4405": "Ġproblems", "4406": "amber", "4407": "Ġchasing", "4408": "Ġlabel", "4409": "Ġapron", "4410": "Ġsent", "4411": "urnit", "4412": "urniture", "4413": "Ġlawy", "4414": "Ġlid", "4415": "uggage", "4416": "med", "4417": "Ġrespectful", "4418": "Ġfurniture", "4419": "Ġfrowned", "4420": "Ġzoomed", "4421": "Ġpages", "4422": "Ġprevent", "4423": "Ġbent", "4424": "Ġluggage", "4425": "Ġmistakes", "4426": "Ġsunset", "4427": "Ġostrich", "4428": "ison", "4429": "Ġsuggested", "4430": "Ġwindows", "4431": "ations", "4432": "Ġjail", "4433": "low", "4434": "Ġwine", "4435": "Ġribbon", "4436": "Ġolder", "4437": "Ġshouts", "4438": "Ġgrape", "4439": "ĠCl", "4440": "Ġwigg", "4441": "ucture", "4442": "Ġstructure", "4443": "Ġspoil", "4444": "eor", "4445": "Ġfixing", "4446": "Ġchamber", "4447": "Ġlions", "4448": "Ġdelay", "4449": "Ġfinds", "4450": "Ġhanded", "4451": "Ġsearching", "4452": "Ġunite", "4453": "Did", "4454": "Ġfought", "4455": "Ġlawyer", "4456": "Ġbrightly", "4457": "Ġpair", "4458": "Ġmeeting", "4459": "Ġchoice", "4460": "Ġsurprises", "4461": "ĠEllie", "4462": "Ġart", "4463": "ĠUn", "4464": "Ch", "4465": "Ġfavour", "4466": "eterin", "4467": "eterinarian", "4468": "adium", "4469": "Ġstadium", "4470": "Ġproudly", "4471": "iki", "4472": "Ġveterinarian", "4473": "vet", "4474": "rod", "4475": "Ġchairs", "4476": "Ġslip", "4477": "ĠSpe", "4478": "Ġsadly", "4479": "ĠBow", "4480": "Ġincre", "4481": "ĠCarl", "4482": "Ġpuddles", "4483": "Ġberry", "4484": "Ġintrod", "4485": "Ġranch", "4486": "veal", "4487": "ĠBoun", "4488": "Ġargue", "4489": "ĠV", "4490": "Ġadmired", "4491": "Ġcur", "4492": "Ġfavourite", "4493": "Your", "4494": "Ġinf", "4495": "Ġexcitedly", "4496": "Ġrac", "4497": "Ġgrabs", "4498": "mend", "4499": "Ġsteam", "4500": "thank", "4501": "Ġhuman", "4502": "eorge", "4503": "sity", "4504": "ĠHel", "4505": "Ġpushing", "4506": "Ġsaving", "4507": "ĠRed", "4508": "Ġreveal", "4509": "ommend", "4510": "alley", "4511": "Ġyield", "4512": "olog", "4513": "Ġmall", "4514": "Ġreminded", "4515": "Ġrecommend", "4516": "Ġleak", "4517": "Ġsurrender", "4518": "Ġharb", "4519": "Ġappl", "4520": "cuss", "4521": "aul", "4522": "Ġweap", "4523": "Ġregret", "4524": "Ġputting", "4525": "Ġvalley", "4526": "Ġmineral", "4527": "Ġevening", "4528": "elcome", "4529": "Ġmatches", "4530": "Ġforgave", "4531": "Ġsneezed", "4532": "Ġpup", "4533": "Ġaw", "4534": "Ġrushed", "4535": "ecause", "4536": "Ġspade", "4537": "Ġapolog", "4538": "Ġplates", "4539": "Ġdiscuss", "4540": "Ġprepare", "4541": "Ġharbor", "4542": "Ġignore", "4543": "ĠBig", "4544": "Ġcountry", "4545": "Ġlanguage", "4546": "ĠBuzzy", "4547": "Ġpulls", "4548": "Ġplastic", "4549": "Ġsupply", "4550": "Ġfloat", "4551": "Ġsniffed", "4552": "ĠJazz", "4553": "Ġreplace", "4554": "Ġmeas", "4555": "Ġshovel", "4556": "ĠBill", "4557": "Ġraise", "4558": "ĠNext", "4559": "Ġfre", "4560": "Ġcared", "4561": "Ġsocks", "4562": "Ġstrip", "4563": "Ġdoors", "4564": "Ġmystery", "4565": "Ġlives", "4566": "Ġrestore", "4567": "Ġsticker", "4568": "Ġsudden", "4569": "ari", "4570": "Ġkinds", "4571": "Ġslippery", "4572": "ero", "4573": "ĠOw", "4574": "Ġplayer", "4575": "Ġpanic", "4576": "ricane", "4577": "Ġhoping", "4578": "iday", "4579": "Ġshone", "4580": "lex", "4581": "hero", "4582": "Ġbeg", "4583": "ĠMike", "4584": "ĠBinky", "4585": "Ġsuperhero", "4586": "Ġdelighted", "4587": "Ġgro", "4588": "Yay", "4589": "aud", "4590": "chan", "4591": "Ġchickens", "4592": "Ġshoulder", "4593": "Ġrained", "4594": "Ġcolourful", "4595": "Ġbreat", "4596": "ĠAlice", "4597": "Ġclaw", "4598": "ĠBubbles", "4599": "Yuck", "4600": "Ġsoftly", "4601": "rise", "4602": "Ġport", "4603": "Grandma", "4604": "Ġhol", "4605": "icer", "4606": "Ġholiday", "4607": "ĠâĢ", "4608": "Ġbarks", "4609": "ason", "4610": "Ġthrowing", "4611": "Ġplanes", "4612": "Mary", "4613": "Ġbend", "4614": "ĠFreddy", "4615": "Ġshakes", "4616": "Ġinfant", "4617": "Ġended", "4618": "Ġshivering", "4619": "Ġkneel", "4620": "Ġsunrise", "4621": "Ġpushes", "4622": "ĠOlive", "4623": "Ġthanks", "4624": "Ġfresh", "4625": "Ġsuffer", "4626": "Ġpoints", "4627": "imed", "4628": "wards", "4629": "ĠPat", "4630": "Ġtip", "4631": "ĠSpeedy", "4632": "Ġfreeze", "4633": "Ġkeeping", "4634": "ĠWould", "4635": "Ġgiggle", "4636": "Ġcopper", "4637": "Ġsmells", "4638": "Ġdear", "4639": "Ġenter", "4640": "Ġprovide", "4641": "cast", "4642": "chanic", "4643": "Ġdishes", "4644": "ĠEnd", "4645": "cond", "4646": "Ġunh", "4647": "Next", "4648": "Ġapplaud", "4649": "Ġheads", "4650": "Ġhurricane", "4651": "Ġcherry", "4652": "Ġthumb", "4653": "Ġmenu", "4654": "Ġmeowed", "4655": "Ġmass", "4656": "Ġsecond", "4657": "Ġbrighter", "4658": "ince", "4659": "Ġsandcast", "4660": "Ġmechanic", "4661": "Ġwre", "4662": "Ġsprayed", "4663": "Ġletting", "4664": "Ġevent", "4665": "Ġweapon", "4666": "Ġlaught", "4667": "Ġx", "4668": "Ġlaughter", "4669": "Ġclapping", "4670": "Ġfeelings", "4671": "Will", "4672": "icky", "4673": "Ġsplashing", "4674": "ement", "4675": "ĠOr", "4676": "acked", "4677": "Ġcastles", "4678": "ĠFl", "4679": "cer", "4680": "Ġscore", "4681": "apping", "4682": "Ġuniverse", "4683": "Ġnavy", "4684": "Ġdem", "4685": "Ġsticky", "4686": "ophie", "4687": "Ġrooms", "4688": "Ġrow", "4689": "Ġflies", "4690": "igi", "4691": "ĠDave", "4692": "Ġunhappy", "4693": "Ġgreedy", "4694": "Ġdare", "4695": "Ġalive", "4696": "Ġbreaks", "4697": "Ġener", "4698": "Ġcourage", "4699": "Ġinvit", "4700": "Ready", "4701": "Ġrepeat", "4702": "Ġdemand", "4703": "Ġtrusted", "4704": "Lisa", "4705": "Ġsomewhere", "4706": "arlie", "4707": "Ġprune", "4708": "bles", "4709": "Ġwreck", "4710": "ĠY", "4711": "Ġskill", "4712": "Ġexamine", "4713": "Ġparts", "4714": "year", "4715": "Ġeaten", "4716": "oe", "4717": "All", "4718": "erc", "4719": "enry", "4720": "Ġmention", "4721": "Ġraining", "4722": "ĠHelp", "4723": "Buddy", "4724": "Ġthrows", "4725": "Ġjogged", "4726": "quest", "4727": "Ġstarting", "4728": "Ġrush", "4729": "Ġpoison", "4730": "Ġpirates", "4731": "heart", "4732": "Ġvac", "4733": "Ġcontent", "4734": "Emma", "4735": "ĠKiki", "4736": "Ġsigh", "4737": "Ġflapped", "4738": "Ġdrops", "4739": "Ġchirp", "4740": "Ġsport", "4741": "Qu", "4742": "Ġsparkled", "4743": "ĠZoomy", "4744": "Ġgiven", "4745": "Ġstreng", "4746": "Ġsteel", "4747": "Ann", "4748": "Ġbumped", "4749": "Ġyawned", "4750": "Ġstud", "4751": "Ġrequest", "4752": "Ġscold", "4753": "Ġmyself", "4754": "Ġstrength", "4755": "Ġshrugged", "4756": "Mark", "4757": "Ġcoats", "4758": "Ġpunish", "4759": "Ġequ", "4760": "Ġsnugg", "4761": "Ġuniversity", "4762": "Ġpaid", "4763": "ĠJohnny", "4764": "Ġpigs", "4765": "Ġscratch", "4766": "Ġtoe", "4767": "Ġexerc", "4768": "Ġtracks", "4769": "Ġupstairs", "4770": "Ġprayed", "4771": "Ġcrossed", "4772": "Ġsqueezed", "4773": "Ġimpressed", "4774": "Ġflood", "4775": "Ġbouncing", "4776": "ĠRu", "4777": "Alice", "4778": "Ġrabbits", "4779": "ges", "4780": "Ġbadly", "4781": "..", "4782": "Ġwarn", "4783": "Ġleather", "4784": "Ġexpect", "4785": "Ġnews", "4786": "Ġtide", "4787": "ĠTed", "4788": "Ġminute", "4789": "Ġbears", "4790": "Ġclaws", "4791": "Ġbuzz", "4792": "Ġsweetheart", "4793": "ĠSm", "4794": "yth", "4795": "Ġnation", "4796": "Sh", "4797": "ythm", "4798": "Ġvacation", "4799": "Ġhist", "4800": "Ġheat", "4801": "Ġstrawberries", "4802": "Ġobserve", "4803": "Ġexplored", "4804": "Ġsettle", "4805": "Ġsandcastle", "4806": "Ġyawn", "4807": "Ġhistory", "4808": "ĠLilly", "4809": "ĠLola", "4810": "mare", "4811": "ĠMummy", "4812": "ĠSque", "4813": "ially", "4814": "inking", "4815": "Ġbelieved", "4816": "Ġhorses", "4817": "Daddy", "4818": "ĠHoppy", "4819": "Ġchecked", "4820": "ĠMandy", "4821": "Ġtour", "4822": "Ġnetwork", "4823": "Ġcheek", "4824": "ĠUnder", "4825": "Ġoffer", "4826": "Ġeasily", "4827": "Ġplaced", "4828": "spec", "4829": "Ġspots", "4830": "Ġsnowball", "4831": "ween", "4832": "men", "4833": "Ġenergy", "4834": "ĠBee", "4835": "Ġimagination", "4836": "Ġblueberry", "4837": "otten", "4838": "Ġbetween", "4839": "specially", "4840": "ĠGigi", "4841": "izes", "4842": "Ġdaisy", "4843": "Ġwaving", "4844": "reeze", "4845": "reat", "4846": "Ġvroom", "4847": "Ġsoak", "4848": "Ġsafari", "4849": "Ġrhythm", "4850": "Ġmassage", "4851": "Ġstomach", "4852": "Ġbaking", "4853": "quake", "4854": "Ġnightmare", "4855": "Ġinsisted", "4856": "Ġblowing", "4857": "Ġentered", "4858": "Before", "4859": "Ġstair", "4860": "Ġpalm", "4861": "Ġbeauty", "4862": "Ġtwisted", "4863": "Ġbother", "4864": "Ġwriting", "4865": "Ġscoop", "4866": "Ġprunes", "4867": "Ġbrain", "4868": "Ġing", "4869": "ipment", "4870": "Ġpoppy", "4871": "Ġhills", "4872": "noon", "4873": "Ġafternoon", "4874": "Ġequipment", "4875": "Ġespecially", "4876": "hest", "4877": "Ġsir", "4878": "Ġpad", "4879": "ĠSee", "4880": "Ġingred", "4881": "Ġcalls", "4882": "Ġingredient", "4883": "ĠFox", "4884": "Ġearthquake", "4885": "Ġignored", "4886": "ĠSnowy", "4887": "Ġburned", "4888": "Ġnobody", "4889": "mble", "4890": "Ġsty", "4891": "apa", "4892": "Ġsew", "4893": "Ġtug", "4894": "ĠĊ", "4895": "isty", "4896": "xygen", "4897": "Ġhearts", "4898": "Ġlear", "4899": "Ġlearnt", "4900": "Ġlemonade", "4901": "Ġincrease", "4902": "illie", "4903": "Jenny", "4904": "Ġgaz", "4905": "Ġbackpack", "4906": "Ġmailman", "4907": "Ġwhistled", "4908": "Ġpedal", "4909": "ĠSk", "4910": "Fred", "4911": "Ġshopkeeper", "4912": "ffic", "4913": "Ġpermit", "4914": "Ġtremble", "4915": "Ġyucky", "4916": "anges", "4917": "Ġmoves", "4918": "Ġintroduce", "4919": "Ġlemons", "4920": "Ġcrash", "4921": "Ġbeans", "4922": "Ġfloated", "4923": "edn", "4924": "ednesday", "4925": "ittens", "4926": "Welcome", "4927": "Ġplanned", "4928": "Ġstrike", "4929": "Ġtraffic", "4930": "Ġinclude", "4931": "Ġslap", "4932": "Ġracing", "4933": "ĠLucky", "4934": "resses", "4935": "Ġwisdom", "4936": "Ġpur", "4937": "Ġwags", "4938": "ĠFinny", "4939": "laimed", "4940": "ĠGeorge", "4941": "Ġluck", "4942": "Ġfollowing", "4943": "Ġprice", "4944": "ecting", "4945": "Ġmama", "4946": "Ġpitch", "4947": "Ġbelow", "4948": "ĠElly", "4949": "ĠHave", "4950": "Le", "4951": "Ġweight", "4952": "Ġexclaimed", "4953": "house", "4954": "Ġburied", "4955": "Ġfollows", "4956": "Ġcomf", "4957": "Ġrecognize", "4958": "Ġingredients", "4959": "Ġfurt", "4960": "tain", "4961": "Ġcandles", "4962": "Mimi", "4963": "Ġmarbles", "4964": "riage", "4965": "unday", "4966": "emember", "4967": "eration", "4968": "ĠAlex", "4969": "Ġapart", "4970": "ĠWednesday", "4971": "Ġgrowled", "4972": "uct", "4973": "ĠSu", "4974": "ores", "4975": "Ġconf", "4976": "Ġteaching", "4977": "Ġhopes", "4978": "Ġfolded", "4979": "Ġclosely", "4980": "ĠFinn", "4981": "ĠWho", "4982": "Ġheel", "4983": "ĠSunday", "4984": "Ġencourage", "4985": "ĠPaul", "4986": "ĠOwl", "4987": "Ġzigzag", "4988": "Ġpulling", "4989": "Ġdigg", "4990": "Ġbouncy", "4991": "Ġfurther", "4992": "Ġchewed", "4993": "Ġdigging", "4994": "Ġwinning", "4995": "Woof", "4996": "With", "4997": "Ġdresses", "4998": "Ġimage", "4999": "rec", "5000": "cery", "5001": "Ġshouting", "5002": "Ġgrocery", "5003": "Ġtwisty", "5004": "Ġpeanuts", "5005": "Ġpuzzles", "5006": "bbing", "5007": "ĠDog", "5008": "look", "5009": "Ġscrat", "5010": "Ġchores", "5011": "Ġwhisper", "5012": "ĠIs", "5013": "Ġspike", "5014": "ĠFroggy", "5015": "Ġcape", "5016": "Ġsnail", "5017": "Ġacorns", "5018": "Ġworms", "5019": "hood", "5020": "Ġdeeper", "5021": "Ġurge", "5022": "ifi", "5023": "Ġexper", "5024": "ĠWhenever", "5025": "ĠTilly", "5026": "ĠSqueaky", "5027": "ĠGrace", "5028": "Ġplanted", "5029": "Ġattention", "5030": "ecture", "5031": "Ġexercise", "5032": "ĠDanny", "5033": "Ġcub", "5034": "Ġoperation", "5035": "Ġunderground", "5036": "Ġhon", "5037": "Ġagre", "5038": "Ġquite", "5039": "Ġcreatures", "5040": "Ġsimp", "5041": "Everyone", "5042": "Ġstruggle", "5043": "oral", "5044": "ĠMittens", "5045": "ddy", "5046": "Ġblood", "5047": "Ġlecture", "5048": "Ġwashing", "5049": "Ġhurting", "5050": "Ġvanished", "5051": "Ġgifts", "5052": "Ġdressed", "5053": "Ġinvitation", "5054": "Ġsolved", "5055": "Ġlicks", "5056": "Ġsnuggled", "5057": "ĠSharing", "5058": "ippy", "5059": "Ġble", "5060": "Ġmarriage", "5061": "Ġquietly", "5062": "gie", "5063": "Ġwarning", "5064": "Ġjazz", "5065": "Ġbreathe", "5066": "reci", "5067": "Ġelephants", "5068": "Ġsizes", "5069": "Ġdried", "5070": "Ġfallen", "5071": "Ġlandscape", "5072": "ories", "5073": "Ġsprink", "5074": "Ġneighbour", "5075": "Ġmice", "5076": "uesday", "5077": "Ġappreci", "5078": "ĠSophie", "5079": "ĠJoey", "5080": "ĠâĢĵ", "5081": "Ġeagerly", "5082": "Ġsailing", "5083": "ĠCoco", "5084": "Ġpaused", "5085": "ips", "5086": "Ġcounter", "5087": "ĠGood", "5088": "ĠBounce", "5089": "ĠPenny", "5090": "Ġworth", "5091": "looking", "5092": "ĠRock", "5093": "Ġoxygen", "5094": "Because", "5095": "Ġrelease", "5096": "Ġshined", "5097": "Not", "5098": "pted", "5099": "Ġreaches", "5100": "Ġbalan", "5101": "ĠZara", "5102": "isses", "5103": "Ġoh", "5104": "Ġkisses", "5105": "Ġstyle", "5106": "Ġbricks", "5107": "Ġplays", "5108": "Ġglo", "5109": "ĠTuesday", "5110": "Ġideas", "5111": "sed", "5112": "Ġinst", "5113": "Ġwob", "5114": "Ġfireworks", "5115": "Bella", "5116": "iggly", "5117": "ucked", "5118": "Ġseeing", "5119": "Ġflap", "5120": "ops", "5121": "Ġaccepted", "5122": "right", "5123": "ĠPip", "5124": "Today", "5125": "Ġblink", "5126": "mm", "5127": "ĠRos", "5128": "Ġtremb", "5129": "These", "5130": "Ġmuddy", "5131": "Ġmemory", "5132": "Ġmarried", "5133": "Ġtomatoes", "5134": "Ġexit", "5135": "ĠAnnie", "5136": "Ġwagging", "5137": "Ġfash", "5138": "Remy", "5139": "ĠCharlie", "5140": "Ġwandered", "5141": "unately", "5142": "ipping", "5143": "Ġgloves", "5144": "Ġcaptain", "5145": "Ġpillows", "5146": "Ġreceive", "5147": "Ġresp", "5148": "ĠPinky", "5149": "raged", "5150": "Ġduring", "5151": "ĠEverything", "5152": "etch", "5153": "Ġweb", "5154": "Ġpetals", "5155": "Ġwatered", "5156": "ĠEventually", "5157": "Ġsi", "5158": "ived", "5159": "Ġmanage", "5160": "Ġpinched", "5161": "Ġbrings", "5162": "Ġvanish", "5163": "Ġcakes", "5164": "Ġfashion", "5165": "ĠBluey", "5166": "Ġprinter", "5167": "Ġdestroyed", "5168": "Ġtreasures", "5169": "nce", "5170": "Ġallow", "5171": "ups", "5172": "Ġhadn", "5173": "Ġworse", "5174": "ĠFifi", "5175": "Surpr", "5176": "Ġvel", "5177": "Ġhits", "5178": "Ġbur", "5179": "xu", "5180": "Ġvelvet", "5181": "Ġappear", "5182": "Ġdisagree", "5183": "do", "5184": "Ġcatching", "5185": "Ġscattered", "5186": "ĠRo", "5187": "Ġmemories", "5188": "Ġsorts", "5189": "ĠPapa", "5190": "Ġhers", "5191": "Ġscolded", "5192": "Ġsigns", "5193": "Ġpears", "5194": "Ġoranges", "5195": "Ġbones", "5196": "Ġrang", "5197": "Ġsnapped", "5198": "Ġsits", "5199": "Ġseats", "5200": "uxu", "5201": "Ġgazed", "5202": "Ġraised", "5203": "Bl", "5204": "ĠMaria", "5205": "Ġzipped", "5206": "Ġpies", "5207": "Ġprints", "5208": "Ġshot", "5209": "Ġsliding", "5210": "ĠGod", "5211": "Ġfro", "5212": "Ġeasier", "5213": "ssible", "5214": "Ġskills", "5215": "Ġclimbs", "5216": "Ġtwirled", "5217": "ccer", "5218": "Ġblankets", "5219": "Ġforgotten", "5220": "Ġbaked", "5221": "ester", "5222": "Yum", "5223": "esterday", "5224": "Ġdifference", "5225": "orted", "5226": "Ġluxu", "5227": "Ġgolden", "5228": "ising", "5229": "Ġkitty", "5230": "ĠTw", "5231": "Ġcutting", "5232": "Ġseason", "5233": "aggie", "5234": "Ġnowhere", "5235": "Ġcrow", "5236": "ah", "5237": "Ġsoccer", "5238": "Ġdared", "5239": "Ġbites", "5240": "ĠHenry", "5241": "ĠHarry", "5242": "anny", "5243": "Ġlung", "5244": "Ġcelebrated", "5245": "choo", "5246": "chie", "5247": "Ġstraight", "5248": "Ġunlocked", "5249": "sters", "5250": "Ġsorting", "5251": "Ġcollected", "5252": "Ġbleed", "5253": "aped", "5254": "ding", "5255": "Ġwelcomed", "5256": "Ġvisited", "5257": "Ġspoons", "5258": "Ġours", "5259": "Ġstitch", "5260": "Ġjogging", "5261": "Surprise", "5262": "medi", "5263": "Ġemer", "5264": "ĠSpark", "5265": "mediately", "5266": "Ġisn", "5267": "Ġtong", "5268": "Ġtrave", "5269": "Ġwinner", "5270": "umble", "5271": "Ġsince", "5272": "Ġruin", "5273": "Ġprett", "5274": "Ok", "5275": "Moral", "5276": "ĠTony", "5277": "Ġattached", "5278": "Ġweeping", "5279": "Ġmarching", "5280": "Ġluxury", "5281": "Ġsimple", "5282": "ĠEach", "5283": "Ġshouldn", "5284": "Ġguessed", "5285": "Ġzero", "5286": "Ġcreated", "5287": "Ġstuffed", "5288": "Ġpets", "5289": "ction", "5290": "Ġwaist", "5291": "Ġfamil", "5292": "Ġurged", "5293": "Ġbowed", "5294": "Ġselling", "5295": "Ġfloating", "5296": "rr", "5297": "ĠSmith", "5298": "Ġbye", "5299": "ĠKing", "5300": "Ġvict", "5301": "Ġkingdom", "5302": "Ġolives", "5303": "Ġkicking", "5304": "ĠWiggly", "5305": "Ġpunished", "5306": "ĠLiz", "5307": "ĠBaby", "5308": "sit", "5309": "Ġtoes", "5310": "Ġgrant", "5311": "Ġmuscles", "5312": "Ġjewels", "5313": "ĠRosie", "5314": "Ġbeds", "5315": "Ġmelted", "5316": "Goodbye", "5317": "Ġslice", "5318": "Ġgrin", "5319": "Ġunderstanding", "5320": "Ġcollection", "5321": "Ġtore", "5322": "Ġmeasured", "5323": "aker", "5324": "Ġcras", "5325": "omeday", "5326": "iers", "5327": "Ġtrapped", "5328": "Ġlined", "5329": "'ve", "5330": "Ġacted", "5331": "fortunately", "5332": "Ġencouraged", "5333": "va", "5334": "ĠSandy", "5335": "Ġreceived", "5336": "Ġwaffles", "5337": "ĠBefore", "5338": "ĠWally", "5339": "Ġwest", "5340": "Ġmeow", "5341": "ents", "5342": "Ġpatterns", "5343": "rin", "5344": "ino", "5345": "Ġbrus", "5346": "eath", "5347": "Ġmouths", "5348": "kins", "5349": "Ġbang", "5350": "ring", "5351": "ĠKate", "5352": "Meow", "5353": "Ġpeaches", "5354": "Ġbreeze", "5355": "aded", "5356": "une", "5357": "Ġprinted", "5358": "Ġsoldiers", "5359": "Ġsomeday", "5360": "Ġpotatoes", "5361": "Ġpupil", "5362": "umes", "5363": "ĠMillie", "5364": "Ġdrinks", "5365": "Ġshed", "5366": "Ġexperience", "5367": "ĠTuna", "5368": "Ġpresents", "5369": "Ġfiref", "5370": "ĠRuby", "5371": "Ġsurround", "5372": "Ġnone", "5373": "osed", "5374": "Ġvoices", "5375": "eep", "5376": "Ġdrinking", "5377": "ĠUncle", "5378": "ishing", "5379": "Ġrelaxed", "5380": "Ġvictory", "5381": "cus", "5382": "Ġpaints", "5383": "Ġbreaking", "5384": "eve", "5385": "Ġhurried", "5386": "ission", "5387": "Ġtwink", "5388": "Ġtongue", "5389": "Ġcostumes", "5390": "Ġflat", "5391": "Ġmentioned", "5392": "Ġbegged", "5393": "Ġteasing", "5394": "Ġwhistling", "5395": "Ġfetch", "5396": "Ġpermission", "5397": "Ġsip", "5398": "Ġdisagreed", "5399": "Ġpearl", "5400": "akes", "5401": "Ġstro", "5402": "vest", "5403": "ĠThese", "5404": "Ġesc", "5405": "Ġappro", "5406": "Ġskipping", "5407": "Ġfishing", "5408": "ĠMay", "5409": "Leo", "5410": "Ġhighest", "5411": "Ġpra", "5412": "Ġwatches", "5413": "Ġsorted", "5414": "Ġringing", "5415": "ship", "5416": "Ġtonight", "5417": "ĠBo", "5418": "Ġopin", "5419": "Ġlets", "5420": "icing", "5421": "ĠQu", "5422": "Ġperfectly", "5423": "Ġshadows", "5424": "Ġimmediately", "5425": "Ġherbs", "5426": "Ġwarmth", "5427": "Ġspit", "5428": "Ġremained", "5429": "ther", "5430": "ĊĠ", "5431": "ĠIts", "5432": "walk", "5433": "Bobby", "5434": "irring", "5435": "Jen", "5436": "Ġsneak", "5437": "Ġsix", "5438": "Ġlips", "5439": "Ġkneeled", "5440": "Blue", "5441": "Ġcontest", "5442": "ĠChe", "5443": "utter", "5444": "Ġcartoons", "5445": "Ġsidewalk", "5446": "Ġcolours", "5447": "Ġstamps", "5448": "Ġago", "5449": "Ha", "5450": "ĠToto", "5451": "ĠBoo", "5452": "ĠFollow", "5453": "Ġeast", "5454": "Ġheaded", "5455": "oved", "5456": "\",", "5457": "Ġstrang", "5458": "Ġladyb", "5459": "Ġfed", "5460": "Ġsupposed", "5461": "Ġroots", "5462": "Ġlick", "5463": "Ġcrunch", "5464": "Ġmixing", "5465": "Ġworks", "5466": "Ġdecorations", "5467": "Ġmelting", "5468": "Ġknown", "5469": "Ġemergen", "5470": "Mandy", "5471": "Ġrested", "5472": "ĠAb", "5473": "Ġlines", "5474": "ĠSuzy", "5475": "Ġlily", "5476": "ĠJul", "5477": "Ġinstr", "5478": "Ġlaid", "5479": "ĠGr", "5480": "Ġsucceeded", "5481": "Ġcones", "5482": "Ġwiggle", "5483": "ety", "5484": "sing", "5485": "Ġshock", "5486": "Ġsetting", "5487": "ĠSlow", "5488": "Ġstudied", "5489": "Ġstrangers", "5490": "ĠRocky", "5491": "Really", "5492": "Ġtwigs", "5493": "Ġbrid", "5494": "Ġtheirs", "5495": "ĠDr", "5496": "Ġgirls", "5497": "boo", "5498": "!\",", "5499": "Ġscreams", "5500": "Ġlands", "5501": "Ġordered", "5502": "Ġstirring", "5503": "Ġmoments", "5504": "Ġfields", "5505": "Ġalright", "5506": "Ġstealing", "5507": "ded", "5508": "Andy", "5509": "Ġrul", "5510": "Ġbravely", "5511": "avid", "5512": "ĠBoth", "5513": "Ġmister", "5514": "!'", "5515": "Ġinvest", "5516": "Ġscratched", "5517": "Ġplaytime", "5518": "Ġripped", "5519": "Ġinvestig", "5520": "Ġtucked", "5521": "Ġresting", "5522": "Ġburning", "5523": "ishes", "5524": "ĠClara", "5525": "ĠChicky", "5526": "Ġbridges", "5527": "Ġofficer", "5528": "please", "5529": "Sammy", "5530": "Bird", "5531": "abies", "5532": "Ġsettled", "5533": "Ġmatched", "5534": "Ġachie", "5535": "Ġtex", "5536": "Ġtexture", "5537": "Happy", "5538": "Ġwaits", "5539": "Ġturning", "5540": "ĠSky", "5541": "Peter", "5542": "ored", "5543": "Ġtrembling", "5544": "isten", "5545": "Ġnails", "5546": "atie", "5547": "Ġmuffins", "5548": "ĠSomeone", "5549": "ids", "5550": "Ġescaped", "5551": "ĠJames", "5552": "Ġpiles", "5553": "Ġinvestigate", "5554": "osity", "5555": "Ġbroom", "5556": "Ġladybug", "5557": "Ġsore", "5558": "ĠPepper", "5559": "Ġappreciate", "5560": "Ġadmir", "5561": "Ġthreat", "5562": "Ġbabies", "5563": "Ġsilence", "5564": "Ġsisters", "5565": "Ġemergency", "5566": "Ġarea", "5567": "ides", "5568": "Ġdads", "5569": "Ġanswers", "5570": "Ġpupp", "5571": "Ġkeys", "5572": "Ġchewing", "5573": "Ġslapped", "5574": "Ġwiz", "5575": "Ġimportance", "5576": "Boo", "5577": "Ġserved", "5578": "ĠHop", "5579": "Ġsafety", "5580": "izing", "5581": "Bu", "5582": "Would", "5583": "Ġsparkle", "5584": "Ġtouching", "5585": "ĠLater", "5586": "Ġsoared", "5587": "igail", "5588": "Ġsings", "5589": "Ġhen", "5590": "allen", "5591": "Ella", "5592": "bers", "5593": "antly", "5594": "Momo", "5595": "ĠDino", "5596": "Ġkeeps", "5597": "Ġamazement", "5598": "Ġchallen", "5599": "Ġtwin", "5600": "Ġhesit", "5601": "Ġrevealed", "5602": "anna", "5603": "achel", "5604": "Ġitem", "5605": "Ġdire", "5606": "Ġsoaked", "5607": "zing", "5608": "Ġwrit", "5609": "Ġfoods", "5610": "Ġrides", "5611": "Ġdinosaurs", "5612": "Ġrecorded", "5613": "Ġtickle", "5614": "Ġinch", "5615": "ĠZigzag", "5616": "ĠMe", "5617": "Ġwizard", "5618": "Ġvet", "5619": "Ġtrips", "5620": "Ġglowed", "5621": "ĠAn", "5622": "ĠFrog", "5623": "Mmm", "5624": "Ġhi", "5625": "Ġbeamed", "5626": "Ġquack", "5627": "Ġcurled", "5628": "Ġhated", "5629": "Ġwink", "5630": "Ġshopping", "5631": "Ġeats", "5632": "Eventually", "5633": "ĠBug", "5634": "Ġpraised", "5635": "Ġwooden", "5636": "Ġbringing", "5637": "Ġmittens", "5638": "Ġstudying", "5639": "Ġguy", "5640": "Ġbrushes", "5641": "Ġspaceship", "5642": "Ġgust", "5643": "Ġcrawling", "5644": "ĠSomething", "5645": "Cat", "5646": "Ġruler", "5647": "Ġflav", "5648": "Ġdownstairs", "5649": "Ġshooting", "5650": "Ġtastes", "5651": "Ġnapping", "5652": "Ġsprinkles", "5653": "Ġmarks", "5654": "Ġcuddled", "5655": "Ġdot", "5656": "hello", "5657": "plash", "5658": "Ġfut", "5659": "ales", "5660": "aved", "5661": "Ġfuture", "5662": "Ġmonsters", "5663": "Ġcollecting", "5664": "Ġmeasuring", "5665": "ĠHappy", "5666": "'.", "5667": "Ġfamilies", "5668": "ĠOut", "5669": "ĠFirst", "5670": "ĠMo", "5671": "Ġthrill", "5672": "Ġoat", "5673": "irts", "5674": "Ġresult", "5675": "Jake", "5676": "Ġapproached", "5677": "ĠRabbit", "5678": "Ġcrunchy", "5679": "act", "5680": "Un", "5681": "Ġremem", "5682": "Ġbleeding", "5683": "Ġremembers", "5684": "Ġnicer", "5685": "Ġbeat", "5686": "Ġsneaky", "5687": "Ġdisturbed", "5688": "Ġleader", "5689": "Ġscaring", "5690": "Or", "5691": "hind", "5692": "Ġpeel", "5693": "ĠHope", "5694": "Ġfiremen", "5695": "Ġneighborhood", "5696": "ĠStar", "5697": "Ġgrey", "5698": "ĠNot", "5699": "Ġmotion", "5700": "Ġnoon", "5701": "Ġpossible", "5702": "Emily", "5703": "Somet", "5704": "Ġapologized", "5705": "Ġweighed", "5706": "ues", "5707": "ĠDid", "5708": "Ġtickets", "5709": "Cl", "5710": "Ġnaps", "5711": "Ġloose", "5712": "Ġpride", "5713": "Ġyouth", "5714": "Ġswims", "5715": "ped", "5716": "Ġstrings", "5717": "Ġrecognized", "5718": "Ġsiren", "5719": "Ġpoking", "5720": "fied", "5721": "ĠHo", "5722": "cious", "5723": "ha", "5724": "elvet", "5725": "Ġtricked", "5726": "Ġwonders", "5727": "Ġgained", "5728": "Ġwanting", "5729": "Ġcrashed", "5730": "Ġobe", "5731": "Ġseesaw", "5732": "Ġworker", "5733": "unnies", "5734": "ls", "5735": "oming", "5736": "Ġdraws", "5737": "Ġscooped", "5738": ".'", "5739": "Ġzooming", "5740": "Ġopinion", "5741": "Ġyelling", "5742": "Ġprepared", "5743": "Ġgrinned", "5744": "ĠSlowly", "5745": "Ġawe", "5746": "Ġpoems", "5747": "Ġdoggy", "5748": "Ġacting", "5749": "ĠBeep", "5750": "Ġhappiest", "5751": "Ġchef", "5752": "Ġsneaked", "5753": "Ġrespons", "5754": "Ġeff", "5755": "ĠAlways", "5756": "ĠLizzy", "5757": "Ġowned", "5758": "Ġbunnies", "5759": "Ġanytime", "5760": "Ġstruck", "5761": "Ġpedals", "5762": "oys", "5763": "Ġknelt", "5764": "ena", "5765": "Ollie", "5766": "Ġsecrets", "5767": "Ġpause", "5768": "Ġdecorated", "5769": "Ġhorns", "5770": "Ġagreement", "5771": "ĠSqu", "5772": "ided", "5773": "Ġfrost", "5774": "Ġtallest", "5775": "Ġobey", "5776": "Remember", "5777": "riends", "5778": "ogo", "5779": "ĠStop", "5780": "Have", "5781": "Ġdecides", "5782": "ĠOnce", "5783": "Ġbehaved", "5784": "Ġtugged", "5785": "Ġsides", "5786": "Ġwoof", "5787": "Ġslim", "5788": "zen", "5789": "Ġgoodnight", "5790": "Ġkeeper", "5791": "Ġsparkling", "5792": "Ġchirped", "5793": "Ġprecious", "5794": "mother", "5795": "lier", "5796": "ien", "5797": "Tr", "5798": "Ġrepeated", "5799": "Ġclaps", "5800": "indy", "5801": "affes", "5802": "Ġsnowballs", "5803": "Ġcontain", "5804": "ud", "5805": "rs", "5806": "ĠRay", "5807": "Ġourselves", "5808": "allow", "5809": "Ġgiraffes", "5810": "Ġbalancing", "5811": "Ġkindly", "5812": "Ġspending", "5813": "Ġwrites", "5814": "ays", "5815": "ppers", "5816": "ĠLike", "5817": "omas", "5818": "Ġprop", "5819": "Ġhissed", "5820": "First", "5821": "Ġfrozen", "5822": "Ġfrosting", "5823": "Ġeffort", "5824": "Ġbuzzing", "5825": "Ġstruggled", "5826": "oh", "5827": "ĠSteve", "5828": "Ġadmiring", "5829": "Ġrele", "5830": "iggy", "5831": "Ġsweeties", "5832": "ĠVelvet", "5833": "Ġslimy", "5834": "Ġbrushed", "5835": "Ġbloomed", "5836": "Susie", "5837": "ĠAm", "5838": "Ġpolished", "5839": "ĠZoe", "5840": "arth", "5841": "anted", "5842": "Ġcomfy", "5843": "Ġboo", "5844": "Ġstaying", "5845": "Ġrubbing", "5846": "Ducky", "5847": "Ġrocking", "5848": "Ġpockets", "5849": "Ġthrilled", "5850": "Ġbeside", "5851": "Ġcomple", "5852": "ĠAunt", "5853": "ĠMaggie", "5854": "Ah", "5855": "Ġeight", "5856": "urry", "5857": "isdom", "5858": "Ġmachines", "5859": "Ġearlier", "5860": "Ġyesterday", "5861": "Ġseems", "5862": "Ġrust", "5863": "ĠKeep", "5864": "Sp", "5865": "Ġtraveled", "5866": "Ġfolding", "5867": "Ġboom", "5868": "Ġcracked", "5869": "ities", "5870": "Ġhugging", "5871": "Ġradishes", "5872": "ĠStitch", "5873": "Ġopening", "5874": "Ġloving", "5875": "Ġcircus", "5876": "Ġsurrounded", "5877": "Ġcuriosity", "5878": "ĠRachel", "5879": "Ġspraying", "5880": "Ġdemanded", "5881": "Ġpaintings", "5882": "amie", "5883": "ĠGreen", "5884": "Ġremoved", "5885": "Ġgaze", "5886": "Ġhonk", "5887": "Ġpebbles", "5888": "Ġzookeeper", "5889": "Ġhardly", "5890": "Ġcatches", "5891": "edding", "5892": "Ġsting", "5893": "Ġstripes", "5894": "Ġpowers", "5895": "Ġloaded", "5896": "ĠPippa", "5897": "Sometimes", "5898": "Ġsplashes", "5899": "Ġpots", "5900": "Ġpetted", "5901": "Ġmatching", "5902": "ĠDavid", "5903": "Thanks", "5904": "Ġtoss", "5905": "Ġstare", "5906": "Ġbelly", "5907": "Yummy", "5908": "ibb", "5909": "Ġwhatever", "5910": "Ġapologize", "5911": "Ġrocked", "5912": "Ġcomforted", "5913": "ĠBree", "5914": "Ġdecision", "5915": "Ġribbons", "5916": "ĠJoy", "5917": "ĠBirdie", "5918": "ern", "5919": "Ġstruggling", "5920": "Ġexpected", "5921": "Ġdeser", "5922": "Ġsteep", "5923": "wh", "5924": "Ġprotected", "5925": "Ġneighbors", "5926": "Ġsmiley", "5927": "Ġchases", "5928": "During", "5929": "Ġgranted", "5930": "Ġcrumb", "5931": "ĠMat", "5932": "Ġpurred", "5933": "Ġdiving", "5934": "Ġsadness", "5935": "Whiskers", "5936": "Ġorganizing", "5937": "lowers", "5938": "Ġeagle", "5939": "Ġheroes", "5940": "Ġdipped", "5941": "Ġsunlight", "5942": "Ġlied", "5943": "Ġpastels", "5944": "ĠFrank", "5945": "Ex", "5946": "Ġsafer", "5947": "Ġroads", "5948": "Ġscru", "5949": "Ġargued", "5950": "ĠMilly", "5951": "Ġgoals", "5952": "ĠWater", "5953": "Ġdiscovery", "5954": "ĠAbigail", "5955": "Ġvillag", "5956": "Ġpeered", "5957": "Ro", "5958": "ĠBouncy", "5959": "use", "5960": "ana", "5961": "loe", "5962": "Ġtim", "5963": "Ġdragons", "5964": "Ġbuildings", "5965": "Ġbuckets", "5966": "Ġparties", "5967": "Ġbeard", "5968": "Ġwedding", "5969": "Rex", "5970": "Ġflutter", "5971": "Ġplanets", "5972": "Ġann", "5973": "ĠRobby", "5974": "Ġpolishing", "5975": "Ġfasc", "5976": "ira", "5977": "Ġreleased", "5978": "ĠChr", "5979": "Ġcrabs", "5980": "ĠGogo", "5981": "Ġtails", "5982": "ĠWatch", "5983": "Ġsausages", "5984": "ĠJu", "5985": "Ġargu", "5986": "Ġcontro", "5987": "Ġbottles", "5988": "Ġwiggled", "5989": "Ġteased", "5990": "uke", "5991": "Ġarguing", "5992": "Ġsled", "5993": "Ġdragged", "5994": "Ġpadd", "5995": "ĠCar", "5996": "Ġroaring", "5997": "Ġclearing", "5998": "Ġshirts", "5999": "Ġmovies", "6000": "Ġgathering", "6001": "Ġairpl", "6002": "Ġwid", "6003": "joyed", "6004": "Ġteaches", "6005": "Ġspiders", "6006": "Ġlimes", "6007": "ĠRemember", "6008": "ĠDare", "6009": "Ġoverjoyed", "6010": "Ġactually", "6011": "Ġsighs", "6012": "Ġcontinue", "6013": "Ġcuddle", "6014": "Ġsoaring", "6015": "Ġsmallest", "6016": "ĠJess", "6017": "Ġdrives", "6018": "Ġsparkles", "6019": "Ġrip", "6020": "Ġsitu", "6021": "Ġcubes", "6022": "Ġrefres", "6023": "Ġtalent", "6024": "Ġchallenge", "6025": "ĠOlly", "6026": "Ġgrandmother", "6027": "ĠSplash", "6028": "Ġpouring", "6029": "umm", "6030": "Ġpretends", "6031": "Ġfascin", "6032": "Ġcuts", "6033": "Ġquarreling", "6034": "Ġpeppers", "6035": "Ġbank", "6036": "Ġshivered", "6037": "Ġmane", "6038": "Ġdusty", "6039": "ley", "6040": "Ġwondering", "6041": "Ġvillagers", "6042": "Ġstretching", "6043": "njoy", "6044": "ib", "6045": "Ġweeks", "6046": "Ġwherever", "6047": "Ġdarker", "6048": "jam", "6049": "Tiny", "6050": "sses", "6051": "ĠX", "6052": "Ġrings", "6053": "Ġonwards", "6054": "ĠKatie", "6055": "Ġunited", "6056": "Achoo", "6057": "Ġbead", "6058": "ĠEveryday", "6059": "ĠBeing", "6060": "Ġprettiest", "6061": "Johnny", "6062": "Ġcaut", "6063": "Ġrealize", "6064": "Ġcompany", "6065": "Ġpenguins", "6066": "annah", "6067": "Luna", "6068": "Fr", "6069": "ĠSpring", "6070": "Ġbedtime", "6071": "Ġcompleted", "6072": "ĠWisdom", "6073": "ĠLeave", "6074": "âĢĿ.", "6075": "Ġknights", "6076": "Ġflags", "6077": "ĠJe", "6078": "ĠBecause", "6079": "Ġplayroom", "6080": "ĠPrin", "6081": "Ġactions", "6082": "ĠZero", "6083": "Ġlearns", "6084": "Ġgotten", "6085": "Ġpatience", "6086": "inda", "6087": "dam", "6088": "Ġshrug", "6089": "Ġkites", "6090": "Ġresponsible", "6091": "Ġfears", "6092": "Ġdestination", "6093": "Ġwires", "6094": "Ġreply", "6095": "Ġwrist", "6096": "Ġdam", "6097": "aws", "6098": "Ġpacking", "6099": "Ġmountains", "6100": "Ġfault", "6101": "Ġapplauded", "6102": "Ġscrubbed", "6103": "Ġma", "6104": "Ġcrept", "6105": "ĠAva", "6106": "Uh", "6107": "ĠEarth", "6108": "Ġsatis", "6109": "Ġthird", "6110": "Ġphot", "6111": "Ġpencils", "6112": "Ġwins", "6113": "Ġsticking", "6114": "Ġbaker", "6115": "Ġvisiting", "6116": "Ġwound", "6117": "Ġuses", "6118": "Ġpeas", "6119": "Ġreminder", "6120": "Ġcontrol", "6121": "ashed", "6122": "Grandpa", "6123": "Ġjoking", "6124": "Ġawake", "6125": "Ġinstruct", "6126": "Ġstaring", "6127": "Ġhealed", "6128": "ĠPut", "6129": "Ġhitting", "6130": "ĠFish", "6131": "Ġscreaming", "6132": "Ġbegin", "6133": "Rob", "6134": "uckily", "6135": "ĠFriends", "6136": "ĠMoo", "6137": "icorn", "6138": "Ġhelmets", "6139": "enty", "6140": "Ġunicorn", "6141": "ler", "6142": "seek", "6143": "Ġtowels", "6144": "Silly", "6145": "ĠLou", "6146": "Ġchips", "6147": "ica", "6148": "Ġcreation", "6149": "Ġwasted", "6150": "bie", "6151": "Mar", "6152": "ĠBehind", "6153": "laire", "6154": "Ġmasks", "6155": "Ġitems", "6156": "Ġforgi", "6157": "Ġfirefight", "6158": "Ġoutdo", "6159": "Ġlollipops", "6160": "Watch", "6161": "Ġheav", "6162": "Ġguns", "6163": "Ġdied", "6164": "ĠHippy", "6165": "Ġseas", "6166": "Ġglitter", "6167": "uddles", "6168": "Ġarrive", "6169": "Ġweren", "6170": "Ġstole", "6171": "Ġscales", "6172": "Ġperched", "6173": "Ġaccom", "6174": "Ġlogs", "6175": "Ġachieve", "6176": "die", "6177": "Ġpracticing", "6178": "ining", "6179": "Ġwhose", "6180": "Stay", "6181": "Ġpumpkins", "6182": "Ġinstructions", "6183": "Ġswoop", "6184": "Ġbatteries", "6185": "Ġcandies", "6186": "Ġagrees", "6187": "Ġproject", "6188": "Ġsnakes", "6189": "Ġchirping", "6190": "Benny", "6191": "Ġshelves", "6192": "Ġprotecting", "6193": "Ġparked", "6194": "Ġexact", "6195": "ĠCra", "6196": "Ġpatiently", "6197": "Ġactiv", "6198": "Ġvideos", "6199": "Ġshoulders", "6200": "Ġblows", "6201": "hee", "6202": "Fo", "6203": "Ġpromises", "6204": "go", "6205": "Ġdent", "6206": "usan", "6207": "uest", "6208": "ners", "6209": "jamas", "6210": "Ġexamined", "6211": "Ġairplane", "6212": "Doggy", "6213": "Ġroses", "6214": "Ġaccompl", "6215": "Ġtasks", "6216": "Dave", "6217": "ĠHoot", "6218": "Poppy", "6219": "ĠBop", "6220": "Bunny", "6221": "Ġbeads", "6222": "Ġbowls", "6223": "Ġcrumbs", "6224": "zes", "6225": "Ġlistens", "6226": "ĠLove", "6227": "ĠCatty", "6228": "ĠBrownie", "6229": "Pete", "6230": "ĠOl", "6231": "Ġdolphins", "6232": "Ġcough", "6233": "Ġbunch", "6234": "Ġguest", "6235": "cakes", "6236": "Ġrequested", "6237": "Ġremote", "6238": "Ġimproved", "6239": "anta", "6240": "Ġreaching", "6241": "Ġbrand", "6242": "ĠJan", "6243": "ayla", "6244": "Ġalien", "6245": "ĠBye", "6246": "irm", "6247": "Ġcopy", "6248": "ĠSun", "6249": "Ġcheering", "6250": "Ġphotos", "6251": "ĠJulie", "6252": "ĠChew", "6253": "Bad", "6254": "ĠBlink", "6255": "Time", "6256": "Ġcans", "6257": "ĠCuddles", "6258": "Ġtimer", "6259": "ĠBy", "6260": "Ġreplaced", "6261": "athy", "6262": "Ġworkers", "6263": "Ġstern", "6264": "ĠEnjoy", "6265": "aster", "6266": "Ġneither", "6267": "Mike", "6268": "Ġpassing", "6269": "Ġmisses", "6270": "Ġcurtains", "6271": "Ġconfl", "6272": "Chirpy", "6273": "Ġrainbows", "6274": "Ġrubs", "6275": "George", "6276": "uctantly", "6277": "Ġrolls", "6278": "Ġpatted", "6279": "ilo", "6280": "Ġpajamas", "6281": "Ġoutdoors", "6282": "esome", "6283": "dies", "6284": "Ġcomplaining", "6285": "ĠSquirrel", "6286": "Lola", "6287": "Run", "6288": "Ġpuppet", "6289": "ĠPrincess", "6290": "Ġcloses", "6291": "Ġbeneath", "6292": "Ġlap", "6293": "Ġdrums", "6294": "Ġtune", "6295": "ĠBeth", "6296": "ĠMouse", "6297": "Ġfilling", "6298": "Miss", "6299": "angled", "6300": "Ġrefuse", "6301": "ĠSorry", "6302": "Ġsweat", "6303": "Ġfaced", "6304": "...", "6305": "Ġseven", "6306": "Ġbalanced", "6307": "ĠĠ", "6308": "Ġrescued", "6309": "neath", "6310": "bl", "6311": "Ġquacked", "6312": "ĠAbby", "6313": "Paul", "6314": "istle", "6315": "Ġawesome", "6316": "Ġ1", "6317": "Ġmission", "6318": "ĠHowever", "6319": "Ġguys", "6320": "Ġconflict", "6321": "Ġcautious", "6322": "Ġvent", "6323": "Ġobserved", "6324": "Ġcause", "6325": "Ġintroduc", "6326": "ĠThomas", "6327": "Ġpastries", "6328": "nie", "6329": "ĠOur", "6330": "Ġexactly", "6331": "Ġdoctors", "6332": "Ġrule", "6333": "Ġbecoming", "6334": "Ġpoliceman", "6335": "Ġmes", "6336": "uly", "6337": "Ġrockets", "6338": "you", "6339": "ĠYes", "6340": "ĠDot", "6341": "Ġfairies", "6342": "lay", "6343": "Ġpout", "6344": "An", "6345": "Ġinsist", "6346": "Ġblooming", "6347": "Ġtractor", "6348": "Ġfarther", "6349": "ĠSad", "6350": "avi", "6351": "Oops", "6352": "Great", "6353": "Ġremembering", "6354": "Ġincluded", "6355": "Ġcurly", "6356": "Zoom", "6357": "Fine", "6358": "Ġteamwork", "6359": "zie", "6360": "Ġfascinated", "6361": "Ġwobbled", "6362": "Ġslam", "6363": "Ġtruly", "6364": "Ġhelpers", "6365": "Ġsights", "6366": "Ġpaddle", "6367": "Ġstumble", "6368": "Ġfirm", "6369": "Henry", "6370": "ĠJilly", "6371": "acob", "6372": "Ġcaused", "6373": "Ġprayer", "6374": "Ġspong", "6375": "Ġrecording", "6376": "kelly", "6377": "ais", "6378": "Ġtraded", "6379": "Ġstarfish", "6380": "Ġsupplies", "6381": "Ġthro", "6382": "Ġpointy", "6383": "Ġsituation", "6384": "Ġinviting", "6385": "eah", "6386": "gers", "6387": "Ġneighbourhood", "6388": "Ġeveryday", "6389": "Ġornaments", "6390": "ĠAlly", "6391": "inkle", "6392": "Ġvalued", "6393": "Ġadding", "6394": "Some", "6395": "Ġreluctantly", "6396": "Ġdots", "6397": "Ġstays", "6398": "Ġtables", "6399": "Ġprettier", "6400": "Ġbare", "6401": "Ġdesert", "6402": "Ġsnowmen", "6403": "Ġsteady", "6404": "Ġminerals", "6405": "araway", "6406": "Ġthorn", "6407": "ody", "6408": "Ġast", "6409": "Ġglasses", "6410": "Ġfaraway", "6411": "ĠGet", "6412": "ĠFoxy", "6413": "Ġswooped", "6414": "ĠWelcome", "6415": "ĠTwo", "6416": "ĠSure", "6417": "Ġunf", "6418": "Ġforks", "6419": "Ġusually", "6420": "Ġusual", "6421": "Polly", "6422": "Ġdar", "6423": "ĠJamie", "6424": "Ġwinked", "6425": "Ġsneezing", "6426": "Ġsolut", "6427": "Ġloading", "6428": "Ġsponge", "6429": "ĠQuick", "6430": "Ġinsects", "6431": "Ġpans", "6432": "Dog", "6433": "Ġsobbed", "6434": "ĠSanta", "6435": "James", "6436": "Ġgrowling", "6437": "sm", "6438": "arter", "6439": "Ġthroat", "6440": "ĠChloe", "6441": "Ġnoses", "6442": "ĠJosh", "6443": "ĠDizzy", "6444": "Ġscarves", "6445": "Ġconfident", "6446": "Ġyourselves", "6447": "ĠWant", "6448": "agull", "6449": "Ġhomework", "6450": "Ġsuperheroes", "6451": "ĠStay", "6452": "Joey", "6453": "Ġsmarter", "6454": "Ġwindy", "6455": "Ġlibrarian", "6456": "Tina", "6457": "ĠKids", "6458": "Ġgems", "6459": "Days", "6460": "ora", "6461": "Ġunderneath", "6462": "Ġkicks", "6463": "Ġknowled", "6464": "Ġitchy", "6465": "Ġknowledge", "6466": "Ġjackets", "6467": "ĠSkelly", "6468": "ĠFor", "6469": "Ġsurface", "6470": "Ġuntie", "6471": "Ġcomm", "6472": "ĠDuck", "6473": "Ġprincesses", "6474": "...\"", "6475": "Those", "6476": "ido", "6477": "eed", "6478": "Hold", "6479": "Yeah", "6480": "coon", "6481": "Ġsquares", "6482": "ĠHenny", "6483": "Ġwarnings", "6484": "Ġgiggling", "6485": "iar", "6486": "Ġreads", "6487": "vin", "6488": "Our", "6489": "Ġchoo", "6490": "son", "6491": "Ġyounger", "6492": "Ġclowns", "6493": "ĠMix", "6494": "Toby", "6495": "Ġropes", "6496": "Ġbiting", "6497": "Ġcrowd", "6498": "ĠUnfortunately", "6499": "pite", "6500": "Danny", "6501": "True", "6502": "Ġseagull", "6503": "Ġpaddled", "6504": "Ġwears", "6505": "Ġdelivered", "6506": "ĠMon", "6507": "Ġtwirl", "6508": "Ġonions", "6509": "Ġbuzzed", "6510": "Ġcomplained", "6511": "Ġbumpy", "6512": "Ġstem", "6513": "Ew", "6514": "Ġpiggy", "6515": "Mrs", "6516": "ĠAnne", "6517": "Ġdirection", "6518": "ouch", "6519": "Ġdived", "6520": "Roar", "6521": "Ġtangled", "6522": "Ġstartled", "6523": "ults", "6524": "Ġleaning", "6525": "bbie", "6526": "ĠAnt", "6527": "ĠJones", "6528": "Ġbadge", "6529": "ĠPo", "6530": "Grace", "6531": "Ġunp", "6532": "Ġdeal", "6533": "though", "6534": "Annie", "6535": "Ġvowed", "6536": "Ġnapkins", "6537": "anes", "6538": "Ġtickled", "6539": "Ġrisk", "6540": "Ġcovers", "6541": "Ġpec", "6542": "Shh", "6543": "Ġyells", "6544": "Ġsatisfied", "6545": "int", "6546": "Ġknocks", "6547": "Ġrefreshed", "6548": "tuce", "6549": "ĠSc", "6550": "cuse", "6551": "Ġcous", "6552": "Ġarrows", "6553": "Maggie", "6554": "ĠWhistle", "6555": "Pe", "6556": "Ġwipes", "6557": "Ġspeaking", "6558": "Ġlettuce", "6559": "Ġguessing", "6560": "Unfortunately", "6561": "ĠQuack", "6562": "Ġripe", "6563": "ĠSusan", "6564": "Ġhides", "6565": "Ġchoices", "6566": "ĠDodo", "6567": "ĠRover", "6568": "Buzz", "6569": "Ġsigned", "6570": "Ġslower", "6571": "Ġseeker", "6572": "Ġintroduced", "6573": "Ġsinger", "6574": "Ġcreating", "6575": "ĠMatt", "6576": "Ġfroze", "6577": "Ġcent", "6578": "uggles", "6579": "Ġjoked", "6580": "Ġsqueal", "6581": "Ġtoaster", "6582": "Ġexplorers", "6583": "fit", "6584": "Ġavo", "6585": "anging", "6586": "Sophie", "6587": "Ġpraying", "6588": "Ġwritten", "6589": "Ġdiscovering", "6590": "Ġprovided", "6591": "ĠDara", "6592": "Ġrefle", "6593": "ĠLion", "6594": "Excuse", "6595": "Ġmushrooms", "6596": "ĠJeff", "6597": "ĠPaws", "6598": "Ġpaying", "6599": "Ġknees", "6600": "ences", "6601": "Ġhider", "6602": "Ġwandering", "6603": "ĠAsh", "6604": "Ġimages", "6605": "Charlie", "6606": "Ġstung", "6607": "ĠWink", "6608": "Ġmagnets", "6609": "Ġbarely", "6610": "Ġbehaving", "6611": "Ġtipto", "6612": "?\",", "6613": "Ġmarked", "6614": "brush", "6615": "rrr", "6616": "Ġrestored", "6617": "ĠDee", "6618": "Ġleading", "6619": "lled", "6620": "Ġchuck", "6621": "ados", "6622": "Ġnine", "6623": "Ġgreet", "6624": "Teddy", "6625": "Ġgears", "6626": "Ġbravery", "6627": "ĠSnuggles", "6628": "ky", "6629": "Ġcompetition", "6630": "eal", "6631": "Ġoutfit", "6632": "oline", "6633": "Ġwishing", "6634": "Ġproperly", "6635": "Ġventured", "6636": "tle", "6637": "aa", "6638": "Ġmuscle", "6639": "Ġdances", "6640": "Ġchat", "6641": "Ġsalty", "6642": "Ġpens", "6643": "amb", "6644": "ĠBetsy", "6645": "Ġranger", "6646": "ĠZiggy", "6647": "Ġdeserve", "6648": "Ġhowever", "6649": "sequ", "6650": "Ġmatters", "6651": "Ġdarkness", "6652": "Ġburst", "6653": "ĠFu", "6654": "Ġrainy", "6655": "Ġcobwebs", "6656": "Ġruining", "6657": "Ġchefs", "6658": "Ġconsequ", "6659": "Ġblocking", "6660": "Ġbak", "6661": "usted", "6662": "itely", "6663": "sty", "6664": "Ġscur", "6665": "Ġvines", "6666": "Ġfab", "6667": "abel", "6668": "Ġfabric", "6669": "Ġentire", "6670": "Ġbasement", "6671": "Ġperformed", "6672": "Ġleast", "6673": "ĠBuggy", "6674": "Sn", "6675": "Ġscratches", "6676": "Ġheavier", "6677": "ĠClaire", "6678": "Ġmints", "6679": "Ġtwirling", "6680": "Ġavocados", "6681": "However", "6682": "ĠLinda", "6683": "rink", "6684": "fl", "6685": "Ġscurried", "6686": "Ġlosing", "6687": "Ġsunflowers", "6688": "ĠJenna", "6689": "Ġrainco", "6690": "Ġswords", "6691": "Tweet", "6692": "Ġclick", "6693": "agic", "6694": "ĠLaser", "6695": "Ġsilent", "6696": "Ġjobs", "6697": "Ġnecklaces", "6698": "Ġflames", "6699": "ĠLuke", "6700": "Ġrelief", "6701": "ĠGrumpy", "6702": "Ġsnat", "6703": "Ġsewed", "6704": "Ġrotting", "6705": "len", "6706": "Listen", "6707": "Follow", "6708": "Ġtricky", "6709": "Jerry", "6710": "Ġlighter", "6711": "ophia", "6712": "Ġbows", "6713": "ĠSkip", "6714": "Ġexha", "6715": "Ġsolution", "6716": "Ġconsequences", "6717": "Alex", "6718": "ĠLena", "6719": "Ġtires", "6720": "Ġstain", "6721": "Beep", "6722": "Ġunpacked", "6723": "Ab", "6724": "Ġpartic", "6725": "rance", "6726": "Ġraces", "6727": "Ġpins", "6728": "Ġbumps", "6729": "Ġwraps", "6730": "aisies", "6731": "Ġwow", "6732": "Ġdecorating", "6733": "Ġbacked", "6734": "cher", "6735": "Ġdentist", "6736": "Ġpurr", "6737": "Ġneedles", "6738": "Ġcautiously", "6739": "Ġlifting", "6740": "izzie", "6741": "ĠPr", "6742": "Ġaccomplish", "6743": "Ġtriangles", "6744": "Ġdaisies", "6745": "ept", "6746": "Ġhesitated", "6747": "Ġannoy", "6748": "ĠThose", "6749": "Ġgrowls", "6750": "Ġcrackers", "6751": "oke", "6752": "Ġstomped", "6753": "Ġgrabbing", "6754": "Ġcott", "6755": "Ġfigured", "6756": "Ġbodies", "6757": "Ġmater", "6758": "Ġbuying", "6759": "ĠTree", "6760": "Ġmaterial", "6761": "ĠRolly", "6762": "ĠFido", "6763": "ĠAdam", "6764": "Ġswans", "6765": "Ġties", "6766": "Ġgri", "6767": "vers", "6768": "Ġgrows", "6769": "Ġsweets", "6770": "ĠGoodbye", "6771": "Ġowners", "6772": "Ġflavor", "6773": "Ġcheeks", "6774": "ĠCathy", "6775": "Big", "6776": "Ġsuffering", "6777": "ĠJessie", "6778": "ĠEl", "6779": "vroom", "6780": "Ġfact", "6781": "Ġgroups", "6782": "bly", "6783": "Ġforehead", "6784": "Ġlungs", "6785": "Harry", "6786": "Ġrepa", "6787": "Ġinterested", "6788": "Ġbakery", "6789": "ĠMilo", "6790": "Ġfreed", "6791": "Lilly", "6792": "itches", "6793": "ĠNothing", "6794": "Ġchuckled", "6795": "For", "6796": "Ġswept", "6797": "Ġconn", "6798": "ĠĊĠ", "6799": "?'", "6800": "Ġthud", "6801": "Ġexhausted", "6802": "Tw", "6803": "Ġtwinkling", "6804": "Ġtapped", "6805": "Ru", "6806": "Ġnect", "6807": "rosty", "6808": "Ġnectar", "6809": "elle", "6810": "Ġfeast", "6811": "Ġdarling", "6812": "indr", "6813": "ĠMad", "6814": "Ġworries", "6815": "Ġuns", "6816": "Ġtunnels", "6817": "Ġfuzzy", "6818": "Ġrepaired", "6819": "Ġreason", "6820": "ĠTrust", "6821": "ĠCopper", "6822": "ĠBall", "6823": "Ġactivities", "6824": "lets", "6825": "Ġpecked", "6826": "ĠHannah", "6827": "Ġentrance", "6828": "ĠTry", "6829": "Ġraindr", "6830": "Ġmeals", "6831": "ĠListen", "6832": "Ġparticular", "6833": "Ġcompletely", "6834": "Ġmailed", "6835": "ctions", "6836": "Ġnests", "6837": "Ġwaiter", "6838": "Ġcuddly", "6839": "Ġsense", "6840": "ĠNana", "6841": "Ġcolored", "6842": "arky", "6843": "Ġleap", "6844": "step", "6845": "band", "6846": "Ġplenty", "6847": "Ġpeeking", "6848": "Ġslammed", "6849": "ĠCara", "6850": "no", "6851": "Ġplayers", "6852": "Ġmonth", "6853": "Ġbudge", "6854": "ĠBirthday", "6855": "ĠQ", "6856": "Ġscra", "6857": "Ġforgets", "6858": "Ġden", "6859": "Ġhandful", "6860": "ĠOliver", "6861": "Ġmer", "6862": "ossible", "6863": "Ġgenie", "6864": "ĠChrist", "6865": "Ġstool", "6866": "iggie", "6867": "Ġtalks", "6868": "ĠPup", "6869": "ĠSuzie", "6870": "Ġpassports", "6871": "Ġfeeding", "6872": "Ġfilms", "6873": "Ġbaths", "6874": "Ġimpossible", "6875": "Ġdetermination", "6876": "May", "6877": "Ġprinting", "6878": "boat", "6879": "Ġdesigned", "6880": "Ġbuses", "6881": "Ġopp", "6882": "ueen", "6883": "lephant", "6884": "Ġsuitcase", "6885": "Ġbars", "6886": "Ġcounts", "6887": "Ġstolen", "6888": "Ġspreading", "6889": "Ġspikes", "6890": "ĠSnap", "6891": "Ġwiping", "6892": "Ġsteer", "6893": "Ġlamb", "6894": "ĠRain", "6895": "Ġhonked", "6896": "etty", "6897": "nies", "6898": "Whee", "6899": "Ġcowb", "6900": "Ġseparated", "6901": "blings", "6902": "Ġsiblings", "6903": "Ġhops", "6904": "Ġchop", "6905": "Ġsewing", "6906": "Ġfires", "6907": "ĠTwinkle", "6908": "Ġfever", "6909": "Ġtwinkle", "6910": "Ġty", "6911": "Ġcamping", "6912": "ĠMira", "6913": "Ġlower", "6914": "Ġchanging", "6915": "yes", "6916": "retch", "6917": "Ġbehavi", "6918": "ĠBloom", "6919": "mas", "6920": "Ġliqu", "6921": "Ġcelebration", "6922": "but", "6923": "Ġsquealed", "6924": "Ġdollhouse", "6925": "Sunny", "6926": "Ġbackward", "6927": "Ġage", "6928": "Ġsnatched", "6929": "Ġcash", "6930": "ho", "6931": "Ġtwice", "6932": "lee", "6933": "Ġsway", "6934": "itched", "6935": "Ġcelebrating", "6936": "ĠPeanut", "6937": "Ġshrinking", "6938": "Ġache", "6939": "weed", "6940": "Ġkings", "6941": "rious", "6942": "Ġshops", "6943": "Ġkittens", "6944": "cope", "6945": "Rose", "6946": "ĠJessica", "6947": "ĠJacob", "6948": "ĠGina", "6949": "aura", "6950": "Ġhus", "6951": "Ġtouches", "6952": "airy", "6953": "Ġpancakes", "6954": "Ġavoid", "6955": "Ġspat", "6956": "ĠFrosty", "6957": "rig", "6958": "hog", "6959": "ĠNina", "6960": "Ġpaths", "6961": "ives", "6962": "cky", "6963": "ĠHold", "6964": "Ġrotten", "6965": "Ġcalmed", "6966": "Sandy", "6967": "Ġseaweed", "6968": "Ġdropping", "6969": "ĠJon", "6970": "ĠMel", "6971": "iles", "6972": "Pipp", "6973": "Ġtwisting", "6974": "Ġstroked", "6975": "Ġuntied", "6976": "llen", "6977": "Ġplayhouse", "6978": "ne", "6979": "Millie", "6980": "Ġstudents", "6981": "Ġpuppies", "6982": "cl", "6983": "ĠSof", "6984": "hi", "6985": "Ġscrews", "6986": "Ġastron", "6987": "ĠRe", "6988": "Ġsomebody", "6989": "igning", "6990": "Ġliquid", "6991": "ammy", "6992": "Ġwakes", "6993": "Ġsquish", "6994": "ĠWoof", "6995": "Ġbracelets", "6996": "Ġastronaut", "6997": "immer", "6998": "aren", "6999": "Ġthrown", "7000": "Ġloops", "7001": "ĠOther", "7002": "Luckily", "7003": "Ġwrapping", "7004": "Ġplain", "7005": "Ġtramp", "7006": "Ġplanning", "7007": "Ġskunk", "7008": "Ġaimed", "7009": "Ġpennies", "7010": "Ġshoo", "7011": "Ġlifts", "7012": "Ġdancers", "7013": "Ġsparks", "7014": "Ġfirefly", "7015": "pen", "7016": "Dan", "7017": "Ġposter", "7018": "yan", "7019": "endy", "7020": "Ġcust", "7021": "ĠChristmas", "7022": "Ġrewarded", "7023": "Ġobjects", "7024": "Ġdirections", "7025": "using", "7026": "ingo", "7027": "Ġreflection", "7028": "Ġhusband", "7029": "âĢĶ", "7030": "Take", "7031": "river", "7032": "Ġclues", "7033": "uppy", "7034": "Ġleads", "7035": "Ġincreased", "7036": "Ġblocked", "7037": "Ġrising", "7038": "Ġdod", "7039": "Ġcousin", "7040": "ĠYesterday", "7041": "ĠWithout", "7042": "Ġforgetting", "7043": "rigued", "7044": "Ġcustom", "7045": "Kate", "7046": "ude", "7047": "Ġtrampoline", "7048": "Ġbeginning", "7049": "Ġstorekeeper", "7050": "Ġpouted", "7051": "Ġzebras", "7052": "Ġhedgehog", "7053": "Ġaff", "7054": "ĠâĢĺ", "7055": "Ġborrowed", "7056": "ĠRollie", "7057": "Ġsnowfl", "7058": "Ġcountryside", "7059": "Jump", "7060": "Ġmesmer", "7061": "ĠJay", "7062": "Ġvehicles", "7063": "Ġinstrum", "7064": "ĠMic", "7065": "ĠKayla", "7066": "ĠUp", "7067": "Ġfrowning", "7068": "ivity", "7069": "Pat", "7070": "Under", "7071": "Ġmarker", "7072": "yond", "7073": "Ġpresses", "7074": "Ġbeyond", "7075": "ĠQueen", "7076": "Ġdamage", "7077": "ĠOnly", "7078": "iece", "7079": "ivery", "7080": "Ġfart", "7081": "ĠTara", "7082": "ĠBiggie", "7083": "jo", "7084": "Ġhealth", "7085": "Ġwhispers", "7086": "Ġswimsuit", "7087": "Ġslips", "7088": "Ġnibb", "7089": "ĠJulia", "7090": "armer", "7091": "Ġwarmer", "7092": "Ġflapping", "7093": "Ġtiptoed", "7094": "Ġregretted", "7095": "itted", "7096": "Zip", "7097": "Ġlaying", "7098": "ĠRobo", "7099": "ades", "7100": "Ġyelp", "7101": "ĠFire", "7102": "Ġrains", "7103": "Ġglued", "7104": "Ġeverybody", "7105": "Ġcreations", "7106": "Ġhearing", "7107": "Ġswir", "7108": "Ġcolder", "7109": "iversity", "7110": "ael", "7111": "Ġshaped", "7112": "ĠElephant", "7113": "Ġstreets", "7114": "Ġfins", "7115": "Ġrusty", "7116": "Ġcushions", "7117": "Out", "7118": "Ġsan", "7119": "Ġfarthest", "7120": "Ġcreativity", "7121": "ĠMikey", "7122": "ans", "7123": "Ġsale", "7124": "Always", "7125": "Co", "7126": "Ġstrongest", "7127": "ibbit", "7128": "Ġfits", "7129": "ĠSparky", "7130": "Ġbells", "7131": "Ġdollars", "7132": "ĠLarry", "7133": "Ġearn", "7134": "iam", "7135": "angle", "7136": "Ġlending", "7137": "ĠMoon", "7138": "ĠChirp", "7139": "eese", "7140": "Ġcashier", "7141": "Milly", "7142": "Ġincluding", "7143": "Ġsniffs", "7144": "Ġsank", "7145": "Ġraincoat", "7146": "ĠRich", "7147": "Ġtrembled", "7148": "Ġstopping", "7149": "Ġsource", "7150": "iti", "7151": "imon", "7152": "ĠMissy", "7153": "Ġwobbly", "7154": "Ġindeed", "7155": "ters", "7156": "Ġguests", "7157": "Ġsingle", "7158": "Ġrecommended", "7159": "Ġwee", "7160": "Ġspells", "7161": "Ġaccomplishment", "7162": "Ġbelts", "7163": "Ġsurprising", "7164": "Ġends", "7165": "Ġhopeful", "7166": "Ġseasons", "7167": "ĠTake", "7168": "ĠSnowman", "7169": "ĠEls", "7170": "Bear", "7171": "Ġplans", "7172": "ichael", "7173": "Ġencourag", "7174": "Ġsupported", "7175": "stick", "7176": "illed", "7177": "Ġsuffered", "7178": "Ġartist", "7179": "Ġperformance", "7180": "eet", "7181": "Nina", "7182": "Ġslowed", "7183": "Ġgross", "7184": "Ġflavors", "7185": "iding", "7186": "ertain", "7187": "Ġspins", "7188": "cho", "7189": "Quack", "7190": "Ġlabels", "7191": "Ġraindrops", "7192": "Ġdelivery", "7193": "uing", "7194": "arac", "7195": "Ġraccoon", "7196": "Ġforgiving", "7197": "obody", "7198": "ĠWoo", "7199": "Ġpours", "7200": "the", "7201": "ility", "7202": "Ġvanilla", "7203": "Ġturtles", "7204": "Ġstands", "7205": "Bill", "7206": "uess", "7207": "Ġrecipe", "7208": "Ġbeam", "7209": "Ġtying", "7210": "ĠSw", "7211": "Ġgeese", "7212": "Ġwilling", "7213": "Ġrobber", "7214": "Ġdrawn", "7215": "Vroom", "7216": "Ġwept", "7217": "ĠBones", "7218": "Ġcharac", "7219": "Ġpops", "7220": "Ġcorners", "7221": "ĠSophia", "7222": "elia", "7223": "Ġqueens", "7224": "Ġsailboat", "7225": "Ġgrip", "7226": "Ġdie", "7227": "Ġdrivers", "7228": "itude", "7229": "Ġmoo", "7230": "Ġhallway", "7231": "Ġimagining", "7232": "Ġseconds", "7233": "ĠFuzzy", "7234": "Mine", "7235": "Ġpreparing", "7236": "Ġwidened", "7237": "Ġadult", "7238": "ĠSpirit", "7239": "Ġgrocer", "7240": "Ġcoop", "7241": "Ġtalented", "7242": "ĠPam", "7243": "ĠBeaky", "7244": "ĠIzzy", "7245": "ummies", "7246": "Ġsailors", "7247": "lling", "7248": "Ġsofter", "7249": "Ġaside", "7250": "Ġwatering", "7251": "Ġsending", "7252": "Ġknots", "7253": "Ġunsure", "7254": "Ġtipped", "7255": "Lulu", "7256": "Ġtreehouse", "7257": "Ġhoriz", "7258": "ĠLizzie", "7259": "Ġnotes", "7260": "Ġecho", "7261": "igers", "7262": "Ġachieved", "7263": "Ġhorizon", "7264": "Ġsqueak", "7265": "Ġdelivering", "7266": "Ġpleasure", "7267": "Ġhotter", "7268": "ĠStella", "7269": "Clara", "7270": "Ġpupils", "7271": "Ġburrow", "7272": "Ġangels", "7273": "Ġcuriously", "7274": "Ellie", "7275": "Ġyum", "7276": "Ġblinking", "7277": "ĠĊĊ", "7278": "ĠJune", "7279": "Ġtweet", "7280": "Ġsymbols", "7281": "Ġdet", "7282": "ĠStretch", "7283": "wk", "7284": "Ġpassen", "7285": "ĠRudy", "7286": "ĠCindy", "7287": "Ġtummies", "7288": "Ġtiss", "7289": "Ġpigeons", "7290": "Ġfigures", "7291": "umbling", "7292": "oey", "7293": "Ġbandages", "7294": "ĠRobert", "7295": "Ġcoup", "7296": "ĠDoctor", "7297": "Ġrobots", "7298": "alph", "7299": "Ġtossed", "7300": "Ġhour", "7301": "Ġbackwards", "7302": "Ġroars", "7303": "Baby", "7304": "Ġmerma", "7305": "uzz", "7306": "Ġrather", "7307": "atur", "7308": "Maria", "7309": "cited", "7310": "ĠPlay", "7311": "ĠCrab", "7312": "Moo", "7313": "ighting", "7314": "Dolly", "7315": "Ġgroceries", "7316": "Ġzipping", "7317": "Put", "7318": "Very", "7319": "Ġunw", "7320": "prin", "7321": "Ġamong", "7322": "Ġblown", "7323": "Ġicing", "7324": "!âĢĿ.", "7325": "Ġrumble", "7326": "Ġafterwards", "7327": "ipper", "7328": "Ġscrewd", "7329": "ushing", "7330": "Ġsped", "7331": "Ġprove", "7332": "Ġglee", "7333": "ĠTiti", "7334": "ĠTia", "7335": "Ġdip", "7336": "Ġovercome", "7337": "Ruby", "7338": "Quick", "7339": "Ġsurfboard", "7340": "Ġshovels", "7341": "Ġslices", "7342": "ĠToot", "7343": "Ġmerry", "7344": "Ġwobble", "7345": "Ġmate", "7346": "ĠTurt", "7347": "ĠAbbie", "7348": "Ġheading", "7349": "Ġdisturbing", "7350": "Ġswall", "7351": "Ġreversed", "7352": "Ġfirefighters", "7353": "Jul", "7354": "Ġswallowed", "7355": "Ġchip", "7356": "eds", "7357": "Ġscored", "7358": "Ġflipped", "7359": "ĠJump", "7360": "Ġsqueezing", "7361": "usty", "7362": "Frank", "7363": "aty", "7364": "Su", "7365": "Ġwaking", "7366": "Ġintrigued", "7367": "Sad", "7368": "Like", "7369": "Ġmaker", "7370": "ĠBarky", "7371": "awn", "7372": "Betty", "7373": "Ġpuff", "7374": "Ġhawk", "7375": "Ġencouraging", "7376": "Ġaud", "7377": "ĠEx", "7378": "osen", "7379": "onies", "7380": "Ġchosen", "7381": "ĠRon", "7382": "hew", "7383": "ĠFarmer", "7384": "ĠAng", "7385": "Ġcouple", "7386": "Ġdesigns", "7387": "Ġslipping", "7388": "Ġscrewdriver", "7389": "Ġsquishy", "7390": "ĠEmmy", "7391": "Ġgardener", "7392": "Ġcenter", "7393": "Ġrivers", "7394": "Ġrespond", "7395": "Ġmarkers", "7396": "iley", "7397": "Ġtigers", "7398": "Ġjars", "7399": "pecting", "7400": "Ġfrowns", "7401": "bird", "7402": "Ġfluttered", "7403": "ĠSadly", "7404": "ĠKit", "7405": "Ribbit", "7406": "Ġfirefighter", "7407": "ĠSl", "7408": "ĠRyan", "7409": "Ġsuits", "7410": "Ġsecure", "7411": "Ġsprinkled", "7412": "Ġcreamy", "7413": "ashes", "7414": "Ġsharks", "7415": "Ġignoring", "7416": "Ġbru", "7417": "Ġgiggles", "7418": "Ġtissue", "7419": "Ġtighter", "7420": "Ġfirmly", "7421": "ounce", "7422": "ĠLaura", "7423": "fly", "7424": "Ġshown", "7425": "Ġfamiliar", "7426": "Ġthorns", "7427": "Spike", "7428": "ĠWo", "7429": "Ġdrawers", "7430": "child", "7431": "ĠZee", "7432": "Ġexpress", "7433": "Car", "7434": "ments", "7435": "Ġdef", "7436": "Ġdaring", "7437": "Ġcrossing", "7438": "Ġaudience", "7439": "Ġperforming", "7440": "Ġcoloured", "7441": "Ġcloudy", "7442": "Ġcor", "7443": "Ġais", "7444": "ĠNick", "7445": "ae", "7446": "rat", "7447": "Ġpedaled", "7448": "Get", "7449": "Ġmixture", "7450": "Ġtil", "7451": "Ġgracefully", "7452": "ggy", "7453": "Ġhaircuts", "7454": "Ġyielded", "7455": "Ġponies", "7456": "Ġdisob", "7457": "Ġcrowns", "7458": "Ġbits", "7459": "Ġtodd", "7460": "ĠSleep", "7461": "Ġnervously", "7462": "Ġhangers", "7463": "bbled", "7464": "ĠPatch", "7465": "Zoomy", "7466": "Ġpays", "7467": "Ġ2", "7468": "Ġpeck", "7469": "Ġstroke", "7470": "Ġev", "7471": "fall", "7472": "Bang", "7473": "een", "7474": "Ġrespected", "7475": "Ġnapped", "7476": "aven", "7477": "Ġminded", "7478": "ddie", "7479": "Bessie", "7480": "ably", "7481": "Boys", "7482": "Ġtested", "7483": "ading", "7484": "parent", "7485": "ĠChris", "7486": "Kim", "7487": "ĠUniversity", "7488": "ĠNear", "7489": "Ġbeeh", "7490": "ĠTurtle", "7491": "Ġsurfing", "7492": "Ġneighbours", "7493": "arrow", "7494": "vered", "7495": "Ġshady", "7496": "iona", "7497": "arlings", "7498": "Ġmagician", "7499": "Ġenthusiasm", "7500": "Ġdarlings", "7501": "Ġwisely", "7502": "Ġstitches", "7503": "Ġsails", "7504": "kend", "7505": "Dear", "7506": "Ġweekend", "7507": "Ġthoughts", "7508": "Freddy", "7509": "ĠTweetie", "7510": "Ġreminds", "7511": "Ġtemper", "7512": "oring", "7513": "tha", "7514": "antha", "7515": "Ġsurroundings", "7516": "Ġspits", "7517": "Ġfleas", "7518": "Ġteams", "7519": "Ġlessons", "7520": "Ġfills", "7521": "Ġflip", "7522": "ĠAlong", "7523": "Ġpaintbrush", "7524": "Ġmelons", "7525": "Ġmermaid", "7526": "oni", "7527": "Katie", "7528": "Ġgrandchild", "7529": "Ġhoops", "7530": "Ġexplo", "7531": "Ġelbow", "7532": "Ġsports", "7533": "Guess", "7534": "Ġlies", "7535": "ĠFighting", "7536": "rac", "7537": "Ġpanicked", "7538": "Ġcleaner", "7539": "Ġamount", "7540": "cused", "7541": "Ġlongest", "7542": "Ġscooters", "7543": "Ġlent", "7544": "ita", "7545": "immering", "7546": "Ġsill", "7547": "Ġbeloved", "7548": "Pippin", "7549": "Ġbeehive", "7550": "Alright", "7551": "ongrat", "7552": "oga", "7553": "lle", "7554": "ongratul", "7555": "Ġoysters", "7556": "Ġgrandparent", "7557": "Ġforgiven", "7558": "Ġmagazines", "7559": "Ġarr", "7560": "ĠWise", "7561": "Ġelf", "7562": "Ġrepeating", "7563": "Ġdiscussed", "7564": "Ġsweetest", "7565": "ĠThanks", "7566": "Keep", "7567": "Ġwadd", "7568": "ĠMaya", "7569": "Ġreass", "7570": "Ġlace", "7571": "ĠGranny", "7572": "Ġnightmares", "7573": "Ġtubes", "7574": "ĠWilly", "7575": "Ġunderstands", "7576": "Ġspoonful", "7577": "Ġnood", "7578": "Ġbathing", "7579": "ĠZoey", "7580": "asty", "7581": "Am", "7582": "Ġsweep", "7583": "Ġmanners", "7584": "crow", "7585": "Uncle", "7586": "Ġwrink", "7587": "Ġsprang", "7588": "Ġnur", "7589": "Ġbully", "7590": "ĠHolly", "7591": "Ġguide", "7592": "ĠYet", "7593": "onna", "7594": "ancy", "7595": "Ġcrew", "7596": "romise", "7597": "Jazz", "7598": "Ġbreathed", "7599": "while", "7600": "steps", "7601": "ilda", "7602": "ently", "7603": "ĠBally", "7604": "Ġbulbs", "7605": "Ġneare", "7606": "Ġgrassy", "7607": "Ġwiggly", "7608": "Ġtesting", "7609": "Ġspies", "7610": "Ġcoug", "7611": "Ġsolving", "7612": "Ġsheets", "7613": "ĠRoo", "7614": "Ġfootsteps", "7615": "ntil", "7616": "Afterwards", "7617": "Ġspeeding", "7618": "Ġfocused", "7619": "ounced", "7620": "cept", "7621": "?!\"", "7622": "Ġmesmerized", "7623": "Ġcamel", "7624": "Ġbraver", "7625": "Ġhesitant", "7626": "ĠSparkle", "7627": "Ġlicking", "7628": "Ġrushing", "7629": "ĠWell", "7630": "Ġjoining", "7631": "ĠPuppy", "7632": "Ġpolar", "7633": "Ġgreeted", "7634": "ĠMartha", "7635": "espite", "7636": "--", "7637": "ĠBubb", "7638": "Which", "7639": "Kiki", "7640": "Ġworn", "7641": "Ġmaterials", "7642": "Ġchanges", "7643": "ĠNobody", "7644": "undred", "7645": "Ġstored", "7646": "Ġbicycles", "7647": "Ġmast", "7648": "Ġanger", "7649": "Leave", "7650": "Ġpeacefully", "7651": "Ġships", "7652": "Ġspice", "7653": "Ġterrified", "7654": "Ġnuzz", "7655": "Ġgonna", "7656": "ĠShow", "7657": "Ġpolitely", "7658": "Snow", "7659": "Ġspills", "7660": "Ġscarecrow", "7661": "Ġknives", "7662": "Ġevil", "7663": "ĠMixy", "7664": "ppies", "7665": "Ġburying", "7666": "ca", "7667": "Ġhealing", "7668": "Ġaren", "7669": "Ġdonkey", "7670": "Ġaeroplanes", "7671": "freeze", "7672": "Even", "7673": "Ġseals", "7674": "Ġscattering", "7675": "Ġmiles", "7676": "ĠChewy", "7677": "amboo", "7678": "Ġdump", "7679": "Ġworrying", "7680": "Bee", "7681": "zoom", "7682": "beep", "7683": "David", "7684": "ĠLenny", "7685": "Ġpuzzled", "7686": "Ġstacked", "7687": "ĠKip", "7688": "Penny", "7689": "ĠNice", "7690": "Ġloses", "7691": "dding", "7692": "Ġtravelled", "7693": "Ġbaskets", "7694": "ĠWin", "7695": "ĠOkay", "7696": "Ġgazing", "7697": "Ġblast", "7698": "ipes", "7699": "ĠTess", "7700": "Hurry", "7701": "Ġtemperature", "7702": "Ġund", "7703": "Ġtasting", "7704": "Ġdripping", "7705": "Ġclue", "7706": "Ġbelieving", "7707": "Ġpinching", "7708": "erm", "7709": "Ġsoaking", "7710": "Ġrats", "7711": "Ġ10", "7712": "isc", "7713": "Ġsandy", "7714": "rect", "7715": "ĠIsn", "7716": "ĠSimon", "7717": "rey", "7718": "anwhile", "7719": "ĠAbi", "7720": "Binky", "7721": "Ġpunishment", "7722": "Ġbanged", "7723": "Ġhumans", "7724": "Ġcrashing", "7725": "Ġforce", "7726": "ĠAna", "7727": "Ġhundred", "7728": "Ġgest", "7729": "ĠLia", "7730": "Ġswimmer", "7731": "ĠChess", "7732": "Ġsnowflakes", "7733": "Ġrelaxing", "7734": "Ġresisted", "7735": "Ġbeeped", "7736": "ĠFairy", "7737": "Ġquarreled", "7738": "form", "7739": "elie", "7740": "Ġramp", "7741": "ĠWendy", "7742": "Ġjoins", "7743": "abby", "7744": "Ġbackpacks", "7745": "ĠPh", "7746": "years", "7747": "Ġdressing", "7748": "Ġdelayed", "7749": "Ġtoddler", "7750": "ĠLuckily", "7751": "Ġflight", "7752": "Ġcovering", "7753": "ĠTe", "7754": "orter", "7755": "Two", "7756": "Open", "7757": "By", "7758": "Ġencouragement", "7759": "Ġbenches", "7760": "Ġtoward", "7761": "Ġscraped", "7762": "Ġpurpose", "7763": "Ġfocus", "7764": "ĠJudy", "7765": "Bow", "7766": "Ġcorrect", "7767": "'.\"", "7768": "Ġlipstick", "7769": "Ġbamboo", "7770": "Spe", "7771": "Ġtwinkled", "7772": "Ġpotion", "7773": "Ġpermitted", "7774": "Ġmonths", "7775": "ĠCow", "7776": "Ġlanguages", "7777": "Ġorders", "7778": "Ġfreedom", "7779": "Tony", "7780": "Ġrisks", "7781": "Ġpoppies", "7782": "Ġmaster", "7783": "shm", "7784": "Ġnoodles", "7785": "Ġfaded", "7786": "Ġwounds", "7787": "shmallow", "7788": "rier", "7789": "Kids", "7790": "isions", "7791": "ĠJojo", "7792": "Ġcreams", "7793": "Ġbirdhouse", "7794": "Ġcells", "7795": "Ġannoyed", "7796": "ĠHerb", "7797": "opes", "7798": "Ġsniffing", "7799": "Ġcheers", "7800": "Ġadults", "7801": "Birdy", "7802": "Ġunwra", "7803": "ecca", "7804": "Buzzy", "7805": "Ġpuck", "7806": "Ġopinions", "7807": "Ġfloats", "7808": "andas", "7809": "Instead", "7810": "Ġflown", "7811": "Ġsneezes", "7812": "Ġscen", "7813": "Ġhandsome", "7814": "Ġnodding", "7815": "ĠMint", "7816": "Ġsmelling", "7817": "Ġburnt", "7818": "Ġ5", "7819": "Ġdrifted", "7820": "ider", "7821": "bage", "7822": "Ġwithin", "7823": "Ġscient", "7824": "Ġheight", "7825": "Ġdamaged", "7826": "Ġbothering", "7827": "Ġtearing", "7828": "Ġslither", "7829": "Ġpleaded", "7830": "Ġinstruments", "7831": "Ġease", "7832": "ĠAli", "7833": "da", "7834": "Back", "7835": "Ġscientist", "7836": "ĠMarie", "7837": "Mira", "7838": "Goodnight", "7839": "Ġpound", "7840": "Ġseller", "7841": "Ġhanding", "7842": "Ġgerm", "7843": "ĠSay", "7844": "Ġwasting", "7845": "Ġfiles", "7846": "Ġresults", "7847": "Ġdreamt", "7848": "ĠMabel", "7849": "bell", "7850": "Ġexplains", "7851": "Ġdestroying", "7852": "Ġbrushing", "7853": "ousy", "7854": "Ġhiss", "7855": "Ġcharacters", "7856": "ĠRazor", "7857": "ĠCr", "7858": "Carl", "7859": "Ġcertain", "7860": "ĠSte", "7861": "Pandy", "7862": "Behind", "7863": "Ġsweaty", "7864": "ĠHug", "7865": "unched", "7866": "Ġbusiness", "7867": "ĠRobbie", "7868": "Ġtalents", "7869": "Ġonward", "7870": "Try", "7871": "Ġengines", "7872": "Ġbravest", "7873": "ition", "7874": "Ġsternly", "7875": "ĠPen", "7876": "ĠJanie", "7877": "prints", "7878": "Ġpostman", "7879": "Ġmosquitoes", "7880": "Ġminds", "7881": "under", "7882": "cake", "7883": "Ġtuck", "7884": "Ġscares", "7885": "urious", "7886": "Ġstomp", "7887": "Ġapologised", "7888": "uel", "7889": "Ġmanag", "7890": "Ġsnuck", "7891": "Ġbitten", "7892": "attered", "7893": "Ġtilted", "7894": "Ġswitched", "7895": "Ġreminding", "7896": "Ġdecisions", "7897": "Ġsingers", "7898": "Ġdesper", "7899": "Ġbehavior", "7900": "ĠPoor", "7901": "ashing", "7902": "ĠJudge", "7903": "bbers", "7904": "inny", "7905": "Ġsqueaked", "7906": "Ġpeeled", "7907": "ĠEverybody", "7908": "Ġyumm", "7909": "Ġpurrs", "7910": "ĠBra", "7911": "Ġtreated", "7912": "Ġsmashed", "7913": "Ġrustling", "7914": "Ġdisplayed", "7915": "ĠUntil", "7916": "Ġneatly", "7917": "Ġmatey", "7918": "Ġplanting", "7919": "ĠBess", "7920": "Ġmarshmallow", "7921": "Ġinsp", "7922": "Ġyelped", "7923": "Ġsy", "7924": "Ġgrandparents", "7925": "Ġcracks", "7926": "Ġbellies", "7927": "aver", "7928": "Ġshines", "7929": "Ġscamp", "7930": "ĠNavy", "7931": "Ġhoo", "7932": "Ġfailed", "7933": "Ġcoloring", "7934": "ĠYoga", "7935": "line", "7936": "Ġzooms", "7937": "ĠMake", "7938": "rup", "7939": "Ġnasty", "7940": "Ġbreathing", "7941": "Ġcombed", "7942": "Ġpandas", "7943": "Ġdespite", "7944": "Ġaddress", "7945": "ighing", "7946": "Ġwaterfall", "7947": "uffin", "7948": "omp", "7949": "cc", "7950": "ĠLoop", "7951": "ĠAngel", "7952": "Tilly", "7953": "Ġwider", "7954": "Ġrobbers", "7955": "Ġantic", "7956": "Play", "7957": "Abigail", "7958": "Ġsweaters", "7959": "Ġechoed", "7960": "Ġdoorway", "7961": "ĠTodd", "7962": "evin", "7963": "Ġedges", "7964": "Ġinj", "7965": "ĠShadow", "7966": "Aunt", "7967": "Ġgap", "7968": "Ġdisobey", "7969": "ĠBlinky", "7970": "wise", "7971": "Liz", "7972": "ĠMichael", "7973": "Ġtar", "7974": "ĠFlick", "7975": "oscope", "7976": "orking", "7977": "Wake", "7978": "Ġtaped", "7979": "Ġmagnif", "7980": "ulp", "7981": "father", "7982": "Ġscolds", "7983": "Ġflaps", "7984": "Ġaction", "7985": "Ġcrawls", "7986": "ĠMindy", "7987": "Ros", "7988": "Ġswap", "7989": "Ġgobbled", "7990": "Ġbacks", "7991": "ĠGary", "7992": "Ġwarri", "7993": "ĠFishy", "7994": "ĠEddie", "7995": "Slow", "7996": "Ġsteth", "7997": "Ġsever", "7998": "Ġshinier", "7999": "Ġprobably", "8000": "Ġnewspapers", "8001": "Ġseveral", "8002": "Ġocc", "8003": "Rock", "8004": "Lena", "8005": "Ġencount", "8006": "ĠMeg", "8007": "Ġserving", "8008": "Ġquieter", "8009": "Ġplucked", "8010": "Ġconnected", "8011": "tock", "8012": "ĠShare", "8013": "Ġouch", "8014": "igger", "8015": "Ted", "8016": "Adam", "8017": "Ġgesture", "8018": "Too", "8019": "Fl", "8020": "Ġstudent", "8021": "Ġplot", "8022": "Ġdoorbell", "8023": "Ġsquaw", "8024": "Ġcares", "8025": "fire", "8026": "Ġrescuing", "8027": "Ġgrandson", "8028": "ĠSe", "8029": "Ġspy", "8030": "Ġsimply", "8031": "Ġrows", "8032": "Ġgoo", "8033": "iel", "8034": "Ġwhistles", "8035": "mies", "8036": "vant", "8037": "Shrink", "8038": "Magic", "8039": "Ġsnaps", "8040": "Ġshorter", "8041": "Ġastronauts", "8042": "ssss", "8043": "Ġunpacking", "8044": "Ġcottage", "8045": "ĠTime", "8046": "Ġswo", "8047": "Ġaccidents", "8048": "ibi", "8049": "Ġswollen", "8050": "Ġmood", "8051": "ĠNut", "8052": "Steve", "8053": "abelle", "8054": "ĠZippy", "8055": "ĠMousy", "8056": "anie", "8057": "Zara", "8058": "Ġbothered", "8059": "Hannah", "8060": "Ġstethoscope", "8061": "found", "8062": "Ġtrusting", "8063": "Ġcausing", "8064": "Mat", "8065": "Mad", "8066": "Ġleapt", "8067": "Ġdresser", "8068": "aint", "8069": "Ġsou", "8070": "Ġproper", "8071": "Ġpills", "8072": "retty", "8073": "Ġthroughout", "8074": "Olive", "8075": "Ġrunner", "8076": "Ġprayers", "8077": "ĠDina", "8078": "Ġjoyful", "8079": "Thomas", "8080": "mates", "8081": "Ġlocks", "8082": "ĠPrince", "8083": "Jamie", "8084": "Ġgoats", "8085": "what", "8086": "Ġtarget", "8087": "rest", "8088": "ĠWait", "8089": "ĠKaren", "8090": "Ġdears", "8091": "ĠBang", "8092": "artled", "8093": "Red", "8094": "Ġwaddled", "8095": "Ġmunch", "8096": "Ġflips", "8097": "ĠCro", "8098": "Ġlowered", "8099": "Ġstepping", "8100": "Ġcons", "8101": "ĠJackie", "8102": "Ġteachers", "8103": "Ġcowboy", "8104": "ĠToys", "8105": "Ġinches", "8106": "Ġenvelopes", "8107": "ears", "8108": "Ġchar", "8109": "ĠVroom", "8110": "Ġexplorer", "8111": "Ġanticip", "8112": "Ġplayd", "8113": "ĠReady", "8114": "ĠRuff", "8115": "ĠRalph", "8116": "unity", "8117": "Nice", "8118": "Finn", "8119": "ĠBad", "8120": "ening", "8121": "Ġknocking", "8122": "Ġfloors", "8123": "Ġefforts", "8124": "ĠPl", "8125": "Ġuniforms", "8126": "lied", "8127": "ĠTri", "8128": "Ġaware", "8129": "Ġfootprints", "8130": "Someone", "8131": "Ġnearly", "8132": "ĠFiona", "8133": "llas", "8134": "Ġdisc", "8135": "ĠRia", "8136": "ivi", "8137": "Ġwhimp", "8138": "Ġtrot", "8139": "Ġsens", "8140": "Ġglitt", "8141": "Ġappreciation", "8142": "oosh", "8143": "Ġnecks", "8144": "Ġcollap", "8145": "Ġchecks", "8146": "Ġlapt", "8147": "Ġexcept", "8148": "Ġplug", "8149": "Ġcharge", "8150": "ĠJacky", "8151": "Ġfluttering", "8152": "Ġumbrellas", "8153": "Ġstamped", "8154": "acy", "8155": "Ġsandcastles", "8156": "ĠDavey", "8157": "Ġstatues", "8158": "ĠHoney", "8159": "omb", "8160": "iscuit", "8161": "ails", "8162": "Hoppy", "8163": "Ġshrank", "8164": "ĠAmelia", "8165": "rily", "8166": "Ġprick", "8167": "Ġfinishing", "8168": "Ġadds", "8169": "rons", "8170": "Ġstroll", "8171": "Ġhunters", "8172": "Ġdodged", "8173": "Ġchocolates", "8174": "Ġpassengers", "8175": "Ġgerms", "8176": "oger", "8177": "Ġwrigg", "8178": "Ġaprons", "8179": "Ġaisle", "8180": "Ġsets", "8181": ".'\"", "8182": "ĠGerry", "8183": "Ġweeds", "8184": "Ġnovels", "8185": "order", "8186": "Ġdemanding", "8187": "ĠTaking", "8188": "Ġscratching", "8189": "Ġmeows", "8190": "issa", "8191": "Dr", "8192": "Ġnurses", "8193": "Lucky", "8194": "Ġminding", "8195": "Ġdiscussing", "8196": "urrender", "8197": "Ġkilled", "8198": "Ġdriveway", "8199": "ĠCari", "8200": "Ġbecomes", "8201": "Ġtoolbox", "8202": "Ġlaptop", "8203": "Ġhaird", "8204": "ĠEliz", "8205": "Ġposit", "8206": "Ġattack", "8207": "ĠSadie", "8208": "ĠDespite", "8209": "Speedy", "8210": "ĠGl", "8211": "sol", "8212": "Ġscampered", "8213": "Ġbounces", "8214": "Ġsupplied", "8215": "Ġsprays", "8216": "Ġdeed", "8217": "Ġtempt", "8218": "Ġsuggestion", "8219": "Ġfriendships", "8220": "Ġburns", "8221": "Coco", "8222": "Ġslapping", "8223": "Ġclosing", "8224": "Arrr", "8225": "Ġinvites", "8226": "Ġbelongings", "8227": "Ġanticipation", "8228": "Ġspringing", "8229": "Ġform", "8230": "Ġerase", "8231": "Ġcotton", "8232": "ĠStan", "8233": "Ġtwists", "8234": "Ġrays", "8235": "Ġsnuggle", "8236": "Ġforgives", "8237": "Ġmodels", "8238": "Ġshall", "8239": "Ġmassages", "8240": "Ġhumming", "8241": "onnie", "8242": "Ġresponded", "8243": "Ġnewfound", "8244": "Ġghosts", "8245": "Ġexpecting", "8246": "ĠShelly", "8247": "Ġcheated", "8248": "Does", "8249": "ĠWooly", "8250": "Gigi", "8251": "otte", "8252": "Ġtraveling", "8253": "ĠNe", "8254": "Ġcond", "8255": "Ġbattle", "8256": "Ġalthough", "8257": "alloween", "8258": "Ġmommies", "8259": "Ġinvitations", "8260": "Ġcarries", "8261": "Ġaim", "8262": "Ġrefreshing", "8263": "Ġpresented", "8264": "Ġconc", "8265": "hel", "8266": "Ġtwenty", "8267": "Ġrowed", "8268": "ĠBumpy", "8269": "ots", "8270": "Ġsquir", "8271": "rie", "8272": "arlotte", "8273": "Ġfoxes", "8274": "Ġcooper", "8275": "Ġfinal", "8276": "Ġduckling", "8277": "Ġcafe", "8278": "ĠBibi", "8279": "Pip", "8280": "Ġmarshmallows", "8281": "Ġclicked", "8282": "ĠZipper", "8283": "oor", "8284": "Ġjets", "8285": "Ġdesigning", "8286": "Ġbeaver", "8287": "five", "8288": "ĠMuffin", "8289": "ĠHalloween", "8290": "Ġmugs", "8291": "ĠWhoever", "8292": "Ġdrown", "8293": "ĠAlthough", "8294": "Ġtricycle", "8295": "Ġpicnics", "8296": "Ġoppos", "8297": "Ġconvin", "8298": "ĠRuth", "8299": "ĠExcited", "8300": "iens", "8301": "ĠCle", "8302": "po", "8303": "Ġscoops", "8304": "Ġcongratul", "8305": "ĠPop", "8306": "ĠMaddie", "8307": "Sadly", "8308": "ĠâĢĶ", "8309": "Ġtravels", "8310": "Ġaliens", "8311": "Ġtests", "8312": "Ġquestioned", "8313": "ĠSpeed", "8314": "inted", "8315": "Ġstrips", "8316": "Ġcraft", "8317": "Near", "8318": "atty", "8319": "Mouse", "8320": "covered", "8321": "Ġdefe", "8322": "ĠFlutter", "8323": "ĠBubba", "8324": "iri", "8325": "Br", "8326": "Ġfights", "8327": "roken", "8328": "Ball", "8329": "Ġopposite", "8330": "ĠBiggy", "8331": "Hmm", "8332": "Find", "8333": "Elly", "8334": "Chloe", "8335": "ĠIm", "8336": "Ġrout", "8337": "Ġgrandfather", "8338": "Ġencountered", "8339": "Ġafford", "8340": "ĠNever", "8341": "Ġdecl", "8342": "inch", "8343": "Ġraising", "8344": "iment", "8345": "Ġupside", "8346": "ĠVivi", "8347": "Meanwhile", "8348": "Jess", "8349": "Ġflashed", "8350": "Ġcalmly", "8351": "ĠRita", "8352": "Ġyawning", "8353": "Ġsincere", "8354": "Ġrealizes", "8355": "aturday", "8356": "Trust", "8357": "Choo", "8358": "Ġcrystals", "8359": "Ġbuddy", "8360": "ĠSamantha", "8361": "Ġcupcakes", "8362": "Ġbuckled", "8363": "byes", "8364": "Both", "8365": "Ġwinners", "8366": "Ġdefin", "8367": "verse", "8368": "ris", "8369": "',", "8370": "Ġweapons", "8371": "Ġcaw", "8372": "shadow", "8373": "Josh", "8374": "Ġpackages", "8375": "Ġcheat", "8376": "ĠSaturday", "8377": "Ġsacks", "8378": "Ġmesses", "8379": "Ġgoodbyes", "8380": "Ġcoach", "8381": "Ġattem", "8382": "quet", "8383": "Ġconvers", "8384": "ĠTruck", "8385": "ĠFlo", "8386": "val", "8387": "Ġdrift", "8388": "Ġcaps", "8389": "ĠMina", "8390": "ĠEva", "8391": "emies", "8392": "Ġenemies", "8393": "asha", "8394": "Ġyummiest", "8395": "Ġscrub", "8396": "Ġswallow", "8397": "Ġreturning", "8398": "rian", "8399": "Ġadmiration", "8400": "ĠSofty", "8401": "ĠMegan", "8402": "Since", "8403": "Ġsprout", "8404": "ĠLouise", "8405": "Ġunable", "8406": "ĠPlaying", "8407": "ĠAnother", "8408": "ugging", "8409": "ooks", "8410": "Ġsadder", "8411": "Ġfreezing", "8412": "Ġbrightest", "8413": "Ġbless", "8414": "ĠYawn", "8415": "Ġrespon", "8416": "ĠMan", "8417": "reverse", "8418": "Ġresponse", "8419": "Ġcosy", "8420": "ĠOh", "8421": "Ġdiamonds", "8422": "Ġbride", "8423": "stalk", "8424": "Ġreapp", "8425": "Ġopport", "8426": "Ġhonking", "8427": "Ġgarbage", "8428": "Ġwhispering", "8429": "Ġstretches", "8430": "Ġprevented", "8431": "erk", "8432": "antastic", "8433": "Ġwhoever", "8434": "Ġodd", "8435": "Ġawful", "8436": "ĠGray", "8437": "alth", "8438": "Ġweighs", "8439": "Ġjourneys", "8440": "Ġawoke", "8441": "Brrr", "8442": "Ġtraps", "8443": "Ġspices", "8444": "Ġdragonfly", "8445": "off", "8446": "Ġborn", "8447": "Ġreassured", "8448": "Ġclip", "8449": "ivia", "8450": "Ġstall", "8451": "Ġbeanstalk", "8452": "Ġargum", "8453": "Ġexamining", "8454": "Ġdefinitely", "8455": "Ġbeetles", "8456": "Ġautomobiles", "8457": "ĠMaisy", "8458": "mine", "8459": "ici", "8460": "Hop", "8461": "Ġvisitors", "8462": "Ġstuffing", "8463": "Ġplaydate", "8464": "Ġwashes", "8465": "cie", "8466": "broken", "8467": "Ġwiser", "8468": "Ġcustomer", "8469": "uper", "8470": "emma", "8471": "Rachel", "8472": "Ġtravelling", "8473": "ĠSofia", "8474": "ĠJolly", "8475": "ĠFlop", "8476": "ouquet", "8477": "Ġhairdress", "8478": "Ġbouquet", "8479": "ĠNurse", "8480": "orse", "8481": "bble", "8482": ",'", "8483": "Ġtumbled", "8484": "Ġdecoration", "8485": "Ġcampfire", "8486": "ĠElle", "8487": "Ġhonesty", "8488": "Ġbud", "8489": "vy", "8490": "ebecca", "8491": "Only", "8492": "Ġbomb", "8493": "Ġwelcoming", "8494": "Ġoffering", "8495": "Ġwealth", "8496": "Ġtroubles", "8497": "Ġoccas", "8498": "Ġincreasing", "8499": "ĠOt", "8500": "ĠJax", "8501": "ĠHello", "8502": "Ġloudest", "8503": "Ġinspired", "8504": "Ġtype", "8505": "Ġparted", "8506": "Ġgroan", "8507": "ĠChick", "8508": "ĠNutty", "8509": "irac", "8510": "Ġwhales", "8511": "ĠThunder", "8512": "ĠRicky", "8513": "yl", "8514": "Ġdeclared", "8515": "Ġcorrectly", "8516": "yler", "8517": "ooky", "8518": "fus", "8519": "Ġbeaks", "8520": "ĠQuacky", "8521": "athan", "8522": "Ġcleared", "8523": "Ġcowboys", "8524": "Ġnuzzled", "8525": "ĠDotty", "8526": "Ġprizes", "8527": "Ġexch", "8528": "Finny", "8529": "Ġwarmly", "8530": "ĠMissile", "8531": "Ġrewards", "8532": "Ġobeyed", "8533": "Ġcustomers", "8534": "Should", "8535": "Ġsirens", "8536": "Ġcomforting", "8537": "ĠFel", "8538": "shaped", "8539": "Ġconnect", "8540": "ĠFlappy", "8541": "match", "8542": "Ġtowns", "8543": "ĠMagic", "8544": "ĠBingo", "8545": "elieve", "8546": "Ġrely", "8547": "ĠVicky", "8548": "Honey", "8549": "Ġtrigger", "8550": "Ġowns", "8551": "Ġinsisting", "8552": "Ġfantastic", "8553": "Ġbends", "8554": "ĠFe", "8555": "Ġspoiling", "8556": "Ġhairdresser", "8557": "Ġsurrendered", "8558": "Ġsupporting", "8559": "Ġshares", "8560": "Ġposes", "8561": "Ġpipes", "8562": "Ġcleans", "8563": "rench", "8564": "Sun", "8565": "Outside", "8566": "Julie", "8567": "Ġwrinkled", "8568": "ĠCook", "8569": "Ġchopped", "8570": "Ġrecorder", "8571": "Ġmoons", "8572": "Ġbeaming", "8573": "unes", "8574": "ellow", "8575": "Beth", "8576": "Ġthanking", "8577": "Ġsnowy", "8578": "ĠWolf", "8579": "Ġscurry", "8580": "Ġexperien", "8581": "Ġenjoyable", "8582": "Ġactive", "8583": "Ġcoral", "8584": "ĠPiggy", "8585": "Ġenviron", "8586": "Ġdollar", "8587": "ĠKevin", "8588": "worm", "8589": "elope", "8590": "Ġloc", "8591": "Je", "8592": "Ġstreamers", "8593": "ĠBub", "8594": "udged", "8595": "ĠPatty", "8596": "ĠMother", "8597": "ĠZack", "8598": "inger", "8599": "Suzy", "8600": "Ġexamp", "8601": "Ġshorts", "8602": "Ġshooed", "8603": "Ġenvironment", "8604": "Tree", "8605": "Ġill", "8606": "Ġscent", "8607": "Ġbruises", "8608": "uster", "8609": "Ġgrat", "8610": "ĠLuc", "8611": "Bo", "8612": "Ġhisses", "8613": "Ġsteering", "8614": "Ġself", "8615": "Ġplugged", "8616": "ĠElsa", "8617": "Ġwarrior", "8618": "Ġvisits", "8619": "Ġexercises", "8620": "screen", "8621": "irl", "8622": "aptain", "8623": "Ġdangers", "8624": "Ġcuddles", "8625": "ĠRel", "8626": "ĠMin", "8627": "ĠAr", "8628": "Ġunfortunately", "8629": "Ġsquished", "8630": "Ġsigning", "8631": "ĠLight", "8632": "bee", "8633": "Ray", "8634": "Ġpilots", "8635": "Ġdisappoint", "8636": "munk", "8637": "Ġgratitude", "8638": "Ġapplauding", "8639": "Ġproviding", "8640": "ĠMoppy", "8641": "alf", "8642": "Ġtickles", "8643": "Ġting", "8644": "ĠRub", "8645": "Grow", "8646": "Ġstorms", "8647": "Ġnights", "8648": "Ġjud", "8649": "Ġconvinced", "8650": "Ġbadger", "8651": "ĠElsie", "8652": "Ġyoun", "8653": "Ġresponsib", "8654": "Ġchoosing", "8655": "ĠKelly", "8656": "Joy", "8657": "Ġyoungest", "8658": "Ġnearest", "8659": "Ġbrains", "8660": "Ġactivity", "8661": "Abby", "8662": "Ġexploded", "8663": "Ġcoughed", "8664": "Ġarranged", "8665": "Claire", "8666": "Ġrewarding", "8667": "ĠTre", "8668": "ĠFly", "8669": "pr", "8670": "good", "8671": "erpiece", "8672": "Ġsunscreen", "8673": "Ġpeep", "8674": "Ġbond", "8675": "ĠFloppy", "8676": "asers", "8677": "Mon", "8678": "ĠTweety", "8679": "ĠSweet", "8680": "ĠKaty", "8681": "ĠJoan", "8682": "ĠSal", "8683": "ilities", "8684": "Ġannoying", "8685": "sn", "8686": "Ġsoapy", "8687": "meow", "8688": "Splash", "8689": "Ġrails", "8690": "Ġlaces", "8691": "Ġthreads", "8692": "Ġtapping", "8693": "Ġoffic", "8694": "Ġappreciated", "8695": "ĠPine", "8696": "ĠPhil", "8697": "boards", "8698": "Ġweighing", "8699": "Ġheartbroken", "8700": "Ġemerged", "8701": "Ġcongratulated", "8702": "ĠPick", "8703": "Danger", "8704": "Ġtin", "8705": "ĠSil", "8706": "Ġcrocodiles", "8707": "Ġclerk", "8708": "Ġscram", "8709": "Ġattempt", "8710": "ĠNancy", "8711": "water", "8712": "Ahoy", "8713": "Ġsnug", "8714": "Ġmessed", "8715": "Ġexample", "8716": "Ġdial", "8717": "ĠKay", "8718": "ĠAny", "8719": "Momma", "8720": "Ġhooks", "8721": "ĠJonny", "8722": "Ġtops", "8723": "Ġchipmunk", "8724": "Ġsoot", "8725": "Ġguarding", "8726": "Ġbathed", "8727": "Ġmanager", "8728": "ĠTippy", "8729": "ortunately", "8730": "ĠMicroscope", "8731": "Friends", "8732": "ĠDe", "8733": "etah", "8734": "Snowy", "8735": "Ġmasterpiece", "8736": "ĠBaa", "8737": "Ġerasers", "8738": "Ġtips", "8739": "Ġfinishes", "8740": "Ġfet", "8741": "Ġcommon", "8742": "ĠTomorrow", "8743": "mbers", "8744": "Ġtrotted", "8745": "Ġnibbled", "8746": "Ġmembers", "8747": "Ġdigs", "8748": "People", "8749": "Ġkinder", "8750": "Ġcheetah", "8751": "Ġparticularly", "8752": "Ġchews", "8753": "Ġblond", "8754": "ircle", "8755": "Ġrips", "8756": "Ġbeast", "8757": "Lizzy", "8758": "Ġargument", "8759": "ative", "8760": "Ġfaith", "8761": "ĠHelping", "8762": "Ġearned", "8763": "Anne", "8764": "Ġobserving", "8765": "Ġforgiveness", "8766": "ĠJoke", "8767": "ĠCici", "8768": "chievous", "8769": "Ġinstantly", "8770": "Ġfishes", "8771": "Ġexperienced", "8772": "Ġcurl", "8773": "Ġcheaper", "8774": "ĠJumpy", "8775": "Rosie", "8776": "Ġmischievous", "8777": "Ġgenerosity", "8778": "Ġcages", "8779": "ĠTwist", "8780": "Gr", "8781": "Baa", "8782": "Ġmeowing", "8783": "Ġfoam", "8784": "mered", "8785": "Cindy", "8786": "Ġstores", "8787": "Ġgrandd", "8788": "ĠAg", "8789": "etchup", "8790": "Ġmattered", "8791": "Ġteles", "8792": "Ġpasses", "8793": "Ġlimp", "8794": "Sque", "8795": "Ġsleeps", "8796": "iolet", "8797": "Ġbreaths", "8798": "ordinary", "8799": "ettle", "8800": "ending", "8801": "Ġtrans", "8802": "Ġrin", "8803": "Ġgasps", "8804": "ĠFreddie", "8805": "Got", "8806": "Ġrumbling", "8807": "Ġhatch", "8808": "ĠMomma", "8809": "over", "8810": "abra", "8811": "Ġgrassho", "8812": "Ġaccomplished", "8813": "ĠHopper", "8814": "acing", "8815": "Ġthump", "8816": "Ġtelescope", "8817": "Ġstrum", "8818": "Ġsmartest", "8819": "Ġmats", "8820": "Ġwhined", "8821": "Ġmoat", "8822": "Gina", "8823": "Ġscrambled", "8824": "Ġjugg", "8825": "Ġfarmers", "8826": "ĠIce", "8827": "Ġdrip", "8828": "Robbie", "8829": "Ġsyrup", "8830": "Ġgardens", "8831": "Ġcollapsed", "8832": "Ġangrily", "8833": "ĠMore", "8834": "ouraged", "8835": "idey", "8836": "Ġvegg", "8837": "Ġstyles", "8838": "Ġforests", "8839": "Ġexperiences", "8840": "Ġdiscoveries", "8841": "hole", "8842": "Ġtor", "8843": "Ġmedals", "8844": "Ġtypes", "8845": "Ġotters", "8846": "Ġmeaning", "8847": "Ġfaint", "8848": "Ġconqu", "8849": "ĠDoes", "8850": "pit", "8851": "adabra", "8852": "acock", "8853": "Ġsnapping", "8854": "Ġhardest", "8855": "Ġfif", "8856": "ering", "8857": "Ġmovements", "8858": "Ġexpression", "8859": "Ġsurv", "8860": "Ġchilly", "8861": "Ġbubbly", "8862": "Ġaffect", "8863": "Pinky", "8864": "Ġvests", "8865": "Ġunfair", "8866": "Ġcourt", "8867": "Whenever", "8868": "Ġtoothbrush", "8869": "Ġscores", "8870": "Ġextraordinary", "8871": "Never", "8872": "Ġattitude", "8873": "Ġvibr", "8874": "Ġhorri", "8875": "Ġbluebird", "8876": "ĠMonkey", "8877": "mel", "8878": "lls", "8879": "Mo", "8880": "Ġspears", "8881": "Ġketchup", "8882": "ĠBerry", "8883": "Mother", "8884": "Ġsooner", "8885": "Ġgrasshopper", "8886": "Ġbehaviour", "8887": "Ġpatches", "8888": "Ġhabit", "8889": "yd", "8890": "erts", "8891": "Karen", "8892": "Ġpokes", "8893": "Ġmomma", "8894": "Ġafar", "8895": "ĠAshley", "8896": "lo", "8897": "ieves", "8898": "Jacob", "8899": "Ġthicker", "8900": "Ġscri", "8901": "ĠFriend", "8902": "Jon", "8903": "Ġsqueezes", "8904": "Ġslithered", "8905": "Ġshrunk", "8906": "Ġclassmates", "8907": "ĠTerry", "8908": "ĠFle", "8909": "Ġicky", "8910": "Ġprickly", "8911": "Ġglittering", "8912": "Ġexpert", "8913": "Ġtopp", "8914": "Ġkneeling", "8915": "Ġannounced", "8916": "ĠSuper", "8917": "ĠRiri", "8918": "elling", "8919": "Ġpeacock", "8920": "Ġmarking", "8921": "ctric", "8922": "Ġcosts", "8923": "ĠCally", "8924": "ĠAchoo", "8925": "Ġzigzags", "8926": "Ġwatermel", "8927": "Ġthieves", "8928": "Ġskirts", "8929": "Ġjumper", "8930": "Ġhood", "8931": "Ġacts", "8932": "ĠZog", "8933": "ĠApp", "8934": "Ġwolves", "8935": "ĠSwim", "8936": "ĠCloud", "8937": "Papa", "8938": "Ġthumbs", "8939": "Ġsqueaky", "8940": "Ġconcer", "8941": "Ġcocoon", "8942": "Ġwoodcut", "8943": "Ġboards", "8944": "ĠEliza", "8945": "ĠBecky", "8946": "Ġservant", "8947": "idence", "8948": "affle", "8949": "Ġcheating", "8950": "ĠJason", "8951": "bu", "8952": "Ġtrading", "8953": "Ġraking", "8954": "cat", "8955": "Jessie", "8956": "Ġexplaining", "8957": "ĠEric", "8958": "rick", "8959": "Ġtidied", "8960": "Ġbiscuit", "8961": "Ġlunchtime", "8962": "Ġluckily", "8963": "ĠAc", "8964": "anced", "8965": "Frog", "8966": "ĠPuffy", "8967": "Ġspilling", "8968": "ĠDay", "8969": "Fire", "8970": "Ġtransform", "8971": "Ġdesserts", "8972": "ĠUse", "8973": "ĠMaddy", "8974": "ĠDaniel", "8975": "ĠAnimal", "8976": "âĢ¦", "8977": "ror", "8978": "ĠPig", "8979": "ĠMine", "8980": "ĠStill", "8981": "ĠGill", "8982": "rough", "8983": "amma", "8984": "Ġmessages", "8985": "Ġmirac", "8986": "ĠCaptain", "8987": "idy", "8988": "Ġwindowsill", "8989": "Ġchill", "8990": "Ġbeating", "8991": "ĠTammy", "8992": "ĠLung", "8993": "ĠGilly", "8994": "oot", "8995": "Ġseeking", "8996": "Ġactor", "8997": "ĠRainbow", "8998": "ĠLina", "8999": "ĠWilliam", "9000": "sess", "9001": "its", "9002": "ĠMath", "9003": "pril", "9004": "Any", "9005": "Ġforeshadow", "9006": "war", "9007": "acles", "9008": "Bluey", "9009": "Ġleans", "9010": "ĠStep", "9011": "ĠPinch", "9012": "ĠHi", "9013": "ĠĊĊĊ", "9014": "racadabra", "9015": "Freeze", "9016": "Bounce", "9017": "Ġwatermelon", "9018": "Ġhissing", "9019": "Ġflashing", "9020": "Ġdev", "9021": "Ġcloths", "9022": "ĠTiger", "9023": "ĠMonster", "9024": "ĠFrankie", "9025": "Ġwinding", "9026": "Ġpositive", "9027": "Ġfunn", "9028": "Ġdiscouraged", "9029": "ĠWil", "9030": "pop", "9031": "Ġwoodcutter", "9032": "Ġforts", "9033": "Ġdripped", "9034": "Ġcompete", "9035": "Ġteapot", "9036": "Ġpressing", "9037": "Ġdisagreeing", "9038": "icking", "9039": "Ġglimmering", "9040": "Ġveggies", "9041": "Ġtrusts", "9042": "Ġtidying", "9043": "Ġkangaroos", "9044": "ĠPeep", "9045": "Ġtempted", "9046": "Ġlanding", "9047": "ĠFlora", "9048": "Ġdock", "9049": "Ġshallow", "9050": "Ġoverw", "9051": "Ġformed", "9052": "lers", "9053": "Ġrack", "9054": "Ġfade", "9055": "ĠTooth", "9056": "flowers", "9057": "Ġworst", "9058": "Ġelectric", "9059": "Ġcops", "9060": "eling", "9061": "Nothing", "9062": "Ġapology", "9063": "iving", "9064": "creams", "9065": "ai", "9066": "Ġsleds", "9067": "ĠSilver", "9068": "ĠLife", "9069": "upid", "9070": "Ġcomets", "9071": "Ġass", "9072": "Owl", "9073": "Ġsav", "9074": "ĠShark", "9075": "ĠMag", "9076": "ĠJelly", "9077": "Bug", "9078": "Ġsituations", "9079": "Ġpapa", "9080": "Ġofficers", "9081": "Ġconversation", "9082": "Ġ4", "9083": "Rain", "9084": "ĠRoger", "9085": "ĠCharlotte", "9086": "storm", "9087": "aye", "9088": "Ġsuns", "9089": "Ġding", "9090": "âĢĿ,", "9091": "Ġzips", "9092": "Ġstructures", "9093": "Ġscurrying", "9094": "Ġpizzas", "9095": "Ġoverwhel", "9096": "Ġmiller", "9097": "ĠButter", "9098": "Ġgranddaughter", "9099": "Ġfoggy", "9100": "ĠOlivia", "9101": "ĠHurry", "9102": "ĠAmber", "9103": "Zoe", "9104": "ĠJaney", "9105": "Ġwebs", "9106": "Ġdeserved", "9107": "Rabbit", "9108": "Ġopportunity", "9109": "Ġcubs", "9110": "ĠYummy", "9111": "ĠSpidey", "9112": "ĠSasha", "9113": "ĠMixie", "9114": "ĠBuster", "9115": "Ġsnorted", "9116": "Ġrhino", "9117": "Ġdifferences", "9118": "ĠGold", "9119": "Ġquacking", "9120": "ĠTell", "9121": "ifully", "9122": "ended", "9123": "Fifi", "9124": "Ġheaven", "9125": "ĠBirds", "9126": "Ġunlo", "9127": "Ġlevers", "9128": "Ġinchworm", "9129": "Ġinter", "9130": "Ġapproach", "9131": "ĠTyler", "9132": "ssess", "9133": "Ġseagulls", "9134": "Ġpossess", "9135": "Ġcooperate", "9136": "ĠRufus", "9137": "ĠFelix", "9138": "ĠBoom", "9139": "welcome", "9140": "sers", "9141": "ragon", "9142": "of", "9143": "?âĢĿ.", "9144": "andra", "9145": "Ġpose", "9146": "Ġdisappointment", "9147": "ĠSmoke", "9148": "ocular", "9149": "Ġspeaks", "9150": "Ġsneaks", "9151": "snap", "9152": "Ġbinocular", "9153": "Ġartwork", "9154": "Ġsurfed", "9155": "Ġscowl", "9156": "Ġanswering", "9157": "ĠSnake", "9158": "Ġshortcut", "9159": "ĠGrand", "9160": "Ġsipped", "9161": "Ġrobin", "9162": "Ġdep", "9163": "Climb", "9164": "Ġarrest", "9165": "ĠInky", "9166": "ssy", "9167": "Ġunwrapped", "9168": "Ġribbit", "9169": "Ġreun", "9170": "Ġamused", "9171": "ĠAmanda", "9172": "ugar", "9173": "Ġrepeats", "9174": "Ġpepperoni", "9175": "Ġapplause", "9176": "Ġkeyhole", "9177": "Ġcheckout", "9178": "ĠMae", "9179": "ĠCars", "9180": "Lia", "9181": "Deal", "9182": "Ġvisitor", "9183": "Ġstriking", "9184": "Ġpuppets", "9185": "Ġpaddling", "9186": "Eat", "9187": "Ġunz", "9188": "Ġcroaked", "9189": "Ġattacked", "9190": "ĠCircle", "9191": "ĠBrian", "9192": "orsie", "9193": "Ġspooky", "9194": "ĠOtto", "9195": "ĠGus", "9196": "Each", "9197": "Ġgroaned", "9198": "Ġbeautifully", "9199": "ĠJean", "9200": "gar", "9201": "cidents", "9202": "Ġswimsuits", "9203": "Ġconsider", "9204": "Ġchecking", "9205": "uses", "9206": "ĠYellow", "9207": "jest", "9208": "Ġwaters", "9209": "Ġgroom", "9210": "ĠSqueak", "9211": "ĠSlinky", "9212": "yle", "9213": "Ġinvent", "9214": "Luke", "9215": "Ġnets", "9216": "Ġexams", "9217": "otion", "9218": "ets", "9219": "Ġdrying", "9220": "ĠRebecca", "9221": "udy", "9222": "artin", "9223": "agine", "9224": "Ġshrugs", "9225": "Ġlump", "9226": "ĠAuntie", "9227": "sie", "9228": "lest", "9229": "Ġsobbing", "9230": "Ġshyly", "9231": "Ġshoots", "9232": "Ġhonks", "9233": "Ġheels", "9234": "Ġcheerfully", "9235": "ĠSince", "9236": "ili", "9237": "hny", "9238": "esses", "9239": "Ġshh", "9240": "Ġchin", "9241": "anish", "9242": "Ġwhimpered", "9243": "Ġhealthier", "9244": "Ġhangs", "9245": "icious", "9246": "Milo", "9247": "ĠMus", "9248": "Ġcaterpillars", "9249": "izzes", "9250": "Slowly", "9251": "Ġsquinted", "9252": "Ġmagnifying", "9253": "Ġfries", "9254": "ĠRatty", "9255": "Ġfascinating", "9256": "Ġblamed", "9257": "ĠFind", "9258": "ulpture", "9259": "ching", "9260": "Ġsculpture", "9261": "Ġfrustration", "9262": "ĠTip", "9263": "ouched", "9264": "Ġshimmering", "9265": "ĠPenelope", "9266": "Ġposs", "9267": "ĠPeace", "9268": "edic", "9269": "Sharing", "9270": "Ġsuck", "9271": "Ġpleas", "9272": "Ġnumbered", "9273": "Ġnibble", "9274": "ĠWaffle", "9275": "othy", "9276": "ibbles", "9277": "ellie", "9278": "amil", "9279": "Ġflowing", "9280": "Ġbaa", "9281": "hings", "9282": "Pepper", "9283": "Ġraked", "9284": "Ġgrumbled", "9285": "ĠOff", "9286": "that", "9287": "Bubbles", "9288": "Ġbuilder", "9289": "racted", "9290": "eat", "9291": "Ġswaying", "9292": "Ġpetting", "9293": "Ġguards", "9294": "Ġfacing", "9295": "ĠWoolly", "9296": "Ġsprinkle", "9297": "Ġmysteries", "9298": "Ġdetails", "9299": "ĠHar", "9300": "sey", "9301": "Ġsnort", "9302": "Ġflock", "9303": "Ġenemy", "9304": "ĠBoat", "9305": "Ġtextures", "9306": "Ġtablet", "9307": "Ġgoodies", "9308": "ĠCurious", "9309": "ĠBarry", "9310": "Yesterday", "9311": "Ġwig", "9312": "Ġpopping", "9313": "Ġwildflowers", "9314": "Ġstacks", "9315": "Ġmarve", "9316": "Ġfans", "9317": "Ġcrops", "9318": "Ġcountries", "9319": "ĠJenn", "9320": "ĠGracie", "9321": "how", "9322": "Ġknobs", "9323": "ĠTessa", "9324": "ĠSeeing", "9325": "Ġlocal", "9326": "Ġbushy", "9327": "Ġstew", "9328": "Ġpeeped", "9329": "Ġhunting", "9330": "Ġdrowned", "9331": "Ġbowing", "9332": "Ġbinoculars", "9333": "Ġangrier", "9334": "ĠBubu", "9335": "Ġmaps", "9336": "ĠMatch", "9337": "Ġquizzes", "9338": "Ġniece", "9339": "Ġmoonlight", "9340": "ĠGlow", "9341": "Ġoutfits", "9342": "ĠJohnson", "9343": "ĠDeal", "9344": "OO", "9345": "Ġwhoosh", "9346": "Ġweaker", "9347": "Ġwrench", "9348": "Ġmindful", "9349": "Ġcrowded", "9350": "cycles", "9351": "Squ", "9352": "Ġendings", "9353": "ĠBeef", "9354": "oll", "9355": "Im", "9356": "Ġproperty", "9357": "Ġhesitation", "9358": "Ġflashes", "9359": "amiliar", "9360": "Ġunless", "9361": "Ġimaginations", "9362": "Ġfond", "9363": "Ġcarts", "9364": "Ġboil", "9365": "Ġability", "9366": "ĠOxy", "9367": "ĠAndrew", "9368": "getic", "9369": "Ġglared", "9370": "ĠRight", "9371": "ĠAccidents", "9372": "stand", "9373": "Ġunfamiliar", "9374": "Ġspaces", "9375": "Ġmicrow", "9376": "Ġknit", "9377": "Ġhaven", "9378": "Ġfolds", "9379": "ths", "9380": "saw", "9381": "Tuna", "9382": "Ġresponsibility", "9383": "Ġdirtier", "9384": "ĠPet", "9385": "bank", "9386": "Ġpouch", "9387": "Ġmicrowave", "9388": "Ġdesks", "9389": "ibly", "9390": "Bless", "9391": "Ġcracker", "9392": "rnie", "9393": "Ġswapped", "9394": "Ġmember", "9395": "Ġdate", "9396": "Ġaston", "9397": "ĠOxygen", "9398": "ĠRing", "9399": "ĠRavi", "9400": "lt", "9401": "free", "9402": "Want", "9403": "Cra", "9404": "Ġwhine", "9405": "Ġsoftened", "9406": "Ġrebu", "9407": "Ġdoorstep", "9408": "Ġdisappearing", "9409": "ĠPeggy", "9410": "ĠHelen", "9411": "ĠBun", "9412": "Ġquacks", "9413": "Ġnatur", "9414": "ĠChip", "9415": "scar", "9416": "Ġwriter", "9417": "Ġlistener", "9418": "ĠToo", "9419": "ĠFix", "9420": "Ġpriv", "9421": "Ġblushed", "9422": "ĠSpicy", "9423": "venir", "9424": "Ġpalms", "9425": "Ġnoticing", "9426": "upt", "9427": "repe", "9428": "poison", "9429": "Ġsouvenir", "9430": "ĠPast", "9431": "repeat", "9432": "entr", "9433": "Ġlaws", "9434": "Ġdisaster", "9435": "ĠTra", "9436": "ĠRes", "9437": "ĠGabby", "9438": "str", "9439": "reg", "9440": "endant", "9441": "Robby", "9442": "Ġphones", "9443": "ala", "9444": "Ava", "9445": "Ġconfidence", "9446": "ĠLi", "9447": "ĠCoal", "9448": "ĠCut", "9449": "ĠBert", "9450": "Ġtimid", "9451": "Ġstirs", "9452": "Ġoverwhelmed", "9453": "ingly", "9454": "Being", "9455": "Ġmayor", "9456": "Ġflick", "9457": "guess", "9458": "asmine", "9459": "Che", "9460": "Ġtugging", "9461": "ĠPretty", "9462": "ĠMole", "9463": "lor", "9464": "Ġuntangle", "9465": "Ġsatisfa", "9466": "Ġowls", "9467": "Ġmailing", "9468": "Ġinjured", "9469": "Whose", "9470": "Ġsatisfaction", "9471": "Ġconcentr", "9472": "ĠWhite", "9473": "ĠImmediately", "9474": "ĠBooks", "9475": "Fly", "9476": "ĠMarch", "9477": "ĠAnimals", "9478": "mers", "9479": "Sc", "9480": "Mittens", "9481": "Ġlim", "9482": "ĠEat", "9483": "this", "9484": "Mabel", "9485": "Ġprank", "9486": "ĠWonder", "9487": "ĠNora", "9488": "ĠBonnie", "9489": "Wiggly", "9490": "Ġhooves", "9491": "ĠTriangle", "9492": "ĠRun", "9493": "ĠPot", "9494": "ĠMelissa", "9495": "ĠKn", "9496": "well", "9497": "Jeff", "9498": "Ġfixer", "9499": "ĠStartled", "9500": "ĠSir", "9501": "ĠClean", "9502": "ĠClose", "9503": "icate", "9504": "Ġsnar", "9505": "Ġclut", "9506": "lish", "9507": "bling", "9508": "Excited", "9509": "Ġskies", "9510": "Ġinstrument", "9511": "ĠTrucky", "9512": "Ġcapt", "9513": "ĠMatilda", "9514": "ĠHorsie", "9515": "ĠFaye", "9516": "adually", "9517": "Ġdisagre", "9518": "iky", "9519": "Ġwriggled", "9520": "Ġstains", "9521": "Ġrinse", "9522": "Ġpecks", "9523": "Ġcreak", "9524": "ĠSleepy", "9525": "Susan", "9526": "Ġshave", "9527": "Ġbumping", "9528": "ĠSing", "9529": "ĠIcy", "9530": "ĠHeli", "9531": "ĠCrabby", "9532": "ulf", "9533": "Ġswirl", "9534": "Ġruff", "9535": "Ġbending", "9536": "cessary", "9537": "Playing", "9538": "Close", "9539": "Ġsandpit", "9540": "Ġexploration", "9541": "Ġchatted", "9542": "ĠScissors", "9543": "Make", "9544": "Ġrods", "9545": "Ġlever", "9546": "Ġfacts", "9547": "Sm", "9548": "Ġattaching", "9549": "ĠCandy", "9550": "Ġfooled", "9551": "Ġburger", "9552": "ĠBro", "9553": "Ġglows", "9554": "Ġconcerned", "9555": "Ġclearly", "9556": "Maya", "9557": "Ġsalon", "9558": "Ġreversing", "9559": "Ġlava", "9560": "Ġcompan", "9561": "Ġcertainly", "9562": "els", "9563": "Wally", "9564": "Ġsmelt", "9565": "Ġmotorcycles", "9566": "Ġfetched", "9567": "Ġcirc", "9568": "Ġtroll", "9569": "Ġtunes", "9570": "Ġsometime", "9571": "Ġprod", "9572": "Ġoldest", "9573": "Ġfireflies", "9574": "Ring", "9575": "Ġkissing", "9576": "Ġchallenges", "9577": "Ġblonde", "9578": "Kayla", "9579": "Ġwarmed", "9580": "ĠBobbie", "9581": "Ġunlocking", "9582": "Ġnatural", "9583": "Ġdifferently", "9584": "Ġbound", "9585": "ĠLots", "9586": "urple", "9587": "sa", "9588": "erg", "9589": "Tara", "9590": "Dino", "9591": "Abracadabra", "9592": "Ġrubb", "9593": "Ġriverbank", "9594": "Ġdetect", "9595": "Ġcutter", "9596": "Ġcupcake", "9597": "Ġconquered", "9598": "Ġhates", "9599": "Ġalley", "9600": "ĠFlap", "9601": "sorry", "9602": "Ġswirls", "9603": "Ġsends", "9604": "Ġrealise", "9605": "ĠOpen", "9606": "ĠFlopsy", "9607": "Julia", "9608": "Isn", "9609": "Ġwiggling", "9610": "Ġsensation", "9611": "Ġmunched", "9612": "Ġbanging", "9613": "ĠCammy", "9614": "Ġtoppings", "9615": "Ġhippos", "9616": "Ġfist", "9617": "Ġclips", "9618": "ĠReliable", "9619": "Doctor", "9620": "Ġswayed", "9621": "Ġstings", "9622": "Ġrobe", "9623": "Ġmiracle", "9624": "Ġhalves", "9625": "Ġbrakes", "9626": "ĠGreeny", "9627": "Hope", "9628": "Fish", "9629": "Ġsurvive", "9630": "Ġostriches", "9631": "ĠPink", "9632": "ĠClimb", "9633": "ula", "9634": "keepers", "9635": "bert", "9636": "Michael", "9637": "Ġtorto", "9638": "Ġotherwise", "9639": "Ġembra", "9640": "Ġcrushed", "9641": "Ġbubbling", "9642": "Ġtents", "9643": "ĠLooking", "9644": "ani", "9645": "Ġrepairing", "9646": "ĠOf", "9647": "Ġvinegar", "9648": "Ġstretchy", "9649": "Ġrubbish", "9650": "Ġlizards", "9651": "ĠWorking", "9652": "ĠFlicker", "9653": "Ġpassenger", "9654": "ĠEd", "9655": "aste", "9656": "Many", "9657": "Ġvibrant", "9658": "Ġtortoise", "9659": "Ġpounced", "9660": "ĠWhich", "9661": "Suzie", "9662": "Ġscene", "9663": "ĠRh", "9664": "ĠGrump", "9665": "gr", "9666": "Ġmooed", "9667": "Ġglided", "9668": "Ġdesperately", "9669": "Ġbas", "9670": "Ġsnip", "9671": "Ġpoop", "9672": "Ġmajest", "9673": "Ġintently", "9674": "Ġcopied", "9675": "Ġcalmer", "9676": "ĠSundays", "9677": "ĠLightning", "9678": "rap", "9679": "net", "9680": "Ġwoken", "9681": "Ġtwel", "9682": "Ġrags", "9683": "Ġjudges", "9684": "Ġjoyfully", "9685": "Ġjing", "9686": "Ġcoolest", "9687": "ĠPer", "9688": "smelling", "9689": "Ġlectures", "9690": "Ġglob", "9691": "ĠJody", "9692": "lyn", "9693": "isible", "9694": "Ġhips", "9695": "Ġcousins", "9696": "Ġastonished", "9697": "Ġcapes", "9698": "ĠOutside", "9699": "ĠLu", "9700": "uno", "9701": "Eww", "9702": "Ġsuccessfully", "9703": "Ġspeaker", "9704": "Ġreunited", "9705": "Ġinvisible", "9706": "Ġguesses", "9707": "Ġgooey", "9708": "Ġarrives", "9709": "why", "9710": "Ġtwelve", "9711": "Ġbats", "9712": "urity", "9713": "Mikey", "9714": "Ġgoodness", "9715": "Ġcomputers", "9716": "Ġchatting", "9717": "ĠCarla", "9718": "nded", "9719": "mie", "9720": "Ġstacking", "9721": "Ġsnowflake", "9722": "istory", "9723": "Ġreappeared", "9724": "Ġracer", "9725": "Ġpounds", "9726": "Ġparks", "9727": "Ġdesperate", "9728": "Ġcompanion", "9729": "Ġcommun", "9730": "bed", "9731": "Zigzag", "9732": "Ol", "9733": "Ġluckiest", "9734": "Ġlevel", "9735": "Ġdou", "9736": "Ġank", "9737": "Ġtale", "9738": "Ġstomachs", "9739": "Ġsells", "9740": "Ġgall", "9741": "Ġdumb", "9742": "Ġcrickets", "9743": "ĠSugar", "9744": "iggles", "9745": "Nick", "9746": "Ġwinds", "9747": "Ġsus", "9748": "Ġgates", "9749": "Ġdisobeyed", "9750": "Ġdisagreement", "9751": "ĠSteven", "9752": "hile", "9753": "More", "9754": "Ġpearls", "9755": "Ġhoses", "9756": "Ġcrisp", "9757": "Ġawhile", "9758": "ĠWhee", "9759": "ites", "9760": "Lou", "9761": "Ġsoda", "9762": "Ġpopsic", "9763": "Ġloyalty", "9764": "ĠOrange", "9765": "Linda", "9766": "Ġtongues", "9767": "ĠRosa", "9768": "usion", "9769": "rent", "9770": "Ġrider", "9771": "ĠCD", "9772": "Ooh", "9773": "ĠBlack", "9774": "pan", "9775": "Ġsurely", "9776": "Ġabo", "9777": "ĠLaw", "9778": "ĠAnnabelle", "9779": "des", "9780": "colored", "9781": "Ġoccasion", "9782": "Ġbund", "9783": "rum", "9784": "izza", "9785": "dog", "9786": "!âĢĻ", "9787": "Ġstun", "9788": "Ġguitars", "9789": "Ġchicks", "9790": "chief", "9791": "Ġseparating", "9792": "Ġseashe", "9793": "Ġrebuild", "9794": "Ġintelligence", "9795": "Ġalligators", "9796": "Ġaboard", "9797": "ĠRaven", "9798": "ĠIron", "9799": "ĠApril", "9800": "Found", "9801": "Ġcroak", "9802": "Ġcreep", "9803": "ĠWinky", "9804": "ĠViolet", "9805": "aids", "9806": "Something", "9807": "Catch", "9808": "Ġlearner", "9809": "Ġcaution", "9810": "Ġcuc", "9811": "ĠOld", "9812": "ĠCare", "9813": "solut", "9814": "Ġwhines", "9815": "Ġspiky", "9816": "Ġrevealing", "9817": "Ġrins", "9818": "ĠUni", "9819": "working", "9820": "Ġtickling", "9821": "Ġescap", "9822": "ĠSettle", "9823": "Ġunderwater", "9824": "Ġglobe", "9825": "Ġcrouched", "9826": "ĠRoar", "9827": "ĠCoby", "9828": "ĠBa", "9829": "udge", "9830": "everse", "9831": "!'.", "9832": "Ġprog", "9833": "Ġblooms", "9834": "Ġappearance", "9835": "Ġ''", "9836": "urricane", "9837": "stop", "9838": "seph", "9839": "ifer", "9840": "fived", "9841": "Jan", "9842": "Ġstrokes", "9843": "Ġleaking", "9844": "Ġhatched", "9845": "Ġguardian", "9846": "ĠSocky", "9847": "ealing", "9848": "arning", "9849": "Ġzookeepers", "9850": "Ġtant", "9851": "Ġroutine", "9852": "Ġpersistence", "9853": "Ġdoves", "9854": "Snap", "9855": "Sleep", "9856": "Chicky", "9857": "Ġtaps", "9858": "Ġsquashes", "9859": "Ġquilt", "9860": "Ġpainful", "9861": "Ġlighting", "9862": "Ġblame", "9863": "Ġadmit", "9864": "Toys", "9865": "Ahh", "9866": "Ġtempting", "9867": "Ġshattered", "9868": "Ġripp", "9869": "Ġmold", "9870": "Ġdeeply", "9871": "ĠPuff", "9872": "ggles", "9873": "Three", "9874": "Ralph", "9875": "Matt", "9876": "Ġthrone", "9877": "Ġsquirted", "9878": "Ġsecurity", "9879": "Ġpeeks", "9880": "Ġelectricity", "9881": "Ġcentre", "9882": "Ġburgers", "9883": "ĠSpin", "9884": "emon", "9885": "con", "9886": "Ġrealizing", "9887": "Ġcooks", "9888": "Ġallowing", "9889": "ĠLiam", "9890": "ushes", "9891": "orth", "9892": "oss", "9893": "cker", "9894": "Jessica", "9895": "Ġlar", "9896": "Ġexchange", "9897": "Ġchopping", "9898": "Share", "9899": "Sophia", "9900": "Ġsweetly", "9901": "ĠRace", "9902": "ĠQuickly", "9903": "ĠAlf", "9904": "vering", "9905": "Ġsweeter", "9906": "Ġrinsed", "9907": "Ġglittered", "9908": "isapp", "9909": "Zero", "9910": "Sw", "9911": "Ġmelts", "9912": "Ġmelody", "9913": "Ġgoggles", "9914": "Ġfurious", "9915": "Ġenergetic", "9916": "Ġdefeated", "9917": "Ġbuilders", "9918": "ĠInch", "9919": "asy", "9920": "Ġwaded", "9921": "Ġtantrum", "9922": "Ġsniffled", "9923": "Ġchooses", "9924": "ĠOtherwise", "9925": "ĠCats", "9926": "ĠComet", "9927": "Ġcontainer", "9928": "Ġcompeting", "9929": "ĠGiant", "9930": "eremy", "9931": "bang", "9932": "ĠSharp", "9933": "ĠMila", "9934": "arted", "9935": "Ġundone", "9936": "Ġseriously", "9937": "Ġprotection", "9938": "Ġlarger", "9939": "Ġlull", "9940": "Ġhudd", "9941": "Ġattempts", "9942": "ĠRara", "9943": "ĠPark", "9944": "ĠDuke", "9945": "Shoo", "9946": "Lizzie", "9947": "Ġtossing", "9948": "Ġhelicopters", "9949": "Ġcooed", "9950": "Ġcluck", "9951": "Ġbuckles", "9952": "ĠWhale", "9953": "ĠPinchy", "9954": "ĠCher", "9955": "Sweet", "9956": "ĠTears", "9957": "ĠSmo", "9958": "ĠOver", "9959": "solutely", "9960": "Still", "9961": "Squeaky", "9962": "Ġhummed", "9963": "Ġdedic", "9964": "Ġcourageous", "9965": "ĠMa", "9966": "ĠHor", "9967": "ĠDin", "9968": "Maddy", "9969": "Everything", "9970": "Curious", "9971": "Ġracers", "9972": "Ġpatients", "9973": "Ġmuster", "9974": "Ġgod", "9975": "Ġdeserves", "9976": "Ġaloud", "9977": "ĠThings", "9978": "aps", "9979": "Use", "9980": "ĠSquee", "9981": "ĠDragon", "9982": "Ġtours", "9983": "Ġmeets", "9984": "Ġmarvel", "9985": "ĠRusty", "9986": "ĠLiza", "9987": "ĠJet", "9988": "Froggy", "9989": "Ġwrapper", "9990": "ĠReddy", "9991": "ĠHops", "9992": "ĠCrusty", "9993": "Ġwhiskers", "9994": "Ġnicest", "9995": "Ġimproving", "9996": "Ġbooth", "9997": "ĠLand", "9998": "Surrender", "9999": "<|endoftext|>"}
